node {
  name: "global_step/Initializer/zeros/shape_as_tensor"
  op: "Const"
  attr {
    key: "_class"
    value {
      list {
        s: "loc:@global_step"
      }
    }
  }
  attr {
    key: "_output_shapes"
    value {
      list {
        shape {
          dim {
          }
        }
      }
    }
  }
  attr {
    key: "dtype"
    value {
      type: DT_INT32
    }
  }
  attr {
    key: "value"
    value {
      tensor {
        dtype: DT_INT32
        tensor_shape {
          dim {
          }
        }
      }
    }
  }
}
node {
  name: "global_step/Initializer/zeros/Const"
  op: "Const"
  attr {
    key: "_class"
    value {
      list {
        s: "loc:@global_step"
      }
    }
  }
  attr {
    key: "_output_shapes"
    value {
      list {
        shape {
        }
      }
    }
  }
  attr {
    key: "dtype"
    value {
      type: DT_INT64
    }
  }
  attr {
    key: "value"
    value {
      tensor {
        dtype: DT_INT64
        tensor_shape {
        }
        int64_val: 0
      }
    }
  }
}
node {
  name: "global_step/Initializer/zeros"
  op: "Fill"
  input: "global_step/Initializer/zeros/shape_as_tensor"
  input: "global_step/Initializer/zeros/Const"
  attr {
    key: "T"
    value {
      type: DT_INT64
    }
  }
  attr {
    key: "_class"
    value {
      list {
        s: "loc:@global_step"
      }
    }
  }
  attr {
    key: "_output_shapes"
    value {
      list {
        shape {
        }
      }
    }
  }
  attr {
    key: "index_type"
    value {
      type: DT_INT32
    }
  }
}
node {
  name: "global_step"
  op: "VariableV2"
  attr {
    key: "_class"
    value {
      list {
        s: "loc:@global_step"
      }
    }
  }
  attr {
    key: "_output_shapes"
    value {
      list {
        shape {
        }
      }
    }
  }
  attr {
    key: "container"
    value {
      s: ""
    }
  }
  attr {
    key: "dtype"
    value {
      type: DT_INT64
    }
  }
  attr {
    key: "shape"
    value {
      shape {
      }
    }
  }
  attr {
    key: "shared_name"
    value {
      s: ""
    }
  }
}
node {
  name: "global_step/Assign"
  op: "Assign"
  input: "global_step"
  input: "global_step/Initializer/zeros"
  attr {
    key: "T"
    value {
      type: DT_INT64
    }
  }
  attr {
    key: "_class"
    value {
      list {
        s: "loc:@global_step"
      }
    }
  }
  attr {
    key: "_output_shapes"
    value {
      list {
        shape {
        }
      }
    }
  }
  attr {
    key: "use_locking"
    value {
      b: true
    }
  }
  attr {
    key: "validate_shape"
    value {
      b: true
    }
  }
}
node {
  name: "global_step/read"
  op: "Identity"
  input: "global_step"
  attr {
    key: "T"
    value {
      type: DT_INT64
    }
  }
  attr {
    key: "_class"
    value {
      list {
        s: "loc:@global_step"
      }
    }
  }
  attr {
    key: "_output_shapes"
    value {
      list {
        shape {
        }
      }
    }
  }
}
node {
  name: "global_step/IsVariableInitialized"
  op: "IsVariableInitialized"
  input: "global_step"
  attr {
    key: "_class"
    value {
      list {
        s: "loc:@global_step"
      }
    }
  }
  attr {
    key: "_output_shapes"
    value {
      list {
        shape {
        }
      }
    }
  }
  attr {
    key: "dtype"
    value {
      type: DT_INT64
    }
  }
}
node {
  name: "global_step/cond/Switch"
  op: "Switch"
  input: "global_step/IsVariableInitialized"
  input: "global_step/IsVariableInitialized"
  attr {
    key: "T"
    value {
      type: DT_BOOL
    }
  }
  attr {
    key: "_output_shapes"
    value {
      list {
        shape {
        }
        shape {
        }
      }
    }
  }
}
node {
  name: "global_step/cond/switch_t"
  op: "Identity"
  input: "global_step/cond/Switch:1"
  attr {
    key: "T"
    value {
      type: DT_BOOL
    }
  }
  attr {
    key: "_output_shapes"
    value {
      list {
        shape {
        }
      }
    }
  }
}
node {
  name: "global_step/cond/switch_f"
  op: "Identity"
  input: "global_step/cond/Switch"
  attr {
    key: "T"
    value {
      type: DT_BOOL
    }
  }
  attr {
    key: "_output_shapes"
    value {
      list {
        shape {
        }
      }
    }
  }
}
node {
  name: "global_step/cond/pred_id"
  op: "Identity"
  input: "global_step/IsVariableInitialized"
  attr {
    key: "T"
    value {
      type: DT_BOOL
    }
  }
  attr {
    key: "_output_shapes"
    value {
      list {
        shape {
        }
      }
    }
  }
}
node {
  name: "global_step/cond/read"
  op: "Identity"
  input: "global_step/cond/read/Switch:1"
  attr {
    key: "T"
    value {
      type: DT_INT64
    }
  }
  attr {
    key: "_output_shapes"
    value {
      list {
        shape {
        }
      }
    }
  }
}
node {
  name: "global_step/cond/read/Switch"
  op: "RefSwitch"
  input: "global_step"
  input: "global_step/cond/pred_id"
  attr {
    key: "T"
    value {
      type: DT_INT64
    }
  }
  attr {
    key: "_class"
    value {
      list {
        s: "loc:@global_step"
      }
    }
  }
  attr {
    key: "_output_shapes"
    value {
      list {
        shape {
        }
        shape {
        }
      }
    }
  }
}
node {
  name: "global_step/cond/Switch_1"
  op: "Switch"
  input: "global_step/Initializer/zeros"
  input: "global_step/cond/pred_id"
  attr {
    key: "T"
    value {
      type: DT_INT64
    }
  }
  attr {
    key: "_class"
    value {
      list {
        s: "loc:@global_step"
      }
    }
  }
  attr {
    key: "_output_shapes"
    value {
      list {
        shape {
        }
        shape {
        }
      }
    }
  }
}
node {
  name: "global_step/cond/Merge"
  op: "Merge"
  input: "global_step/cond/Switch_1"
  input: "global_step/cond/read"
  attr {
    key: "N"
    value {
      i: 2
    }
  }
  attr {
    key: "T"
    value {
      type: DT_INT64
    }
  }
  attr {
    key: "_output_shapes"
    value {
      list {
        shape {
        }
        shape {
        }
      }
    }
  }
}
node {
  name: "global_step/add/y"
  op: "Const"
  attr {
    key: "_output_shapes"
    value {
      list {
        shape {
        }
      }
    }
  }
  attr {
    key: "dtype"
    value {
      type: DT_INT64
    }
  }
  attr {
    key: "value"
    value {
      tensor {
        dtype: DT_INT64
        tensor_shape {
        }
        int64_val: 0
      }
    }
  }
}
node {
  name: "global_step/add"
  op: "Add"
  input: "global_step/cond/Merge"
  input: "global_step/add/y"
  attr {
    key: "T"
    value {
      type: DT_INT64
    }
  }
  attr {
    key: "_output_shapes"
    value {
      list {
        shape {
        }
      }
    }
  }
}
node {
  name: "tensors/component_0"
  op: "Const"
  device: "/device:CPU:0"
  attr {
    key: "_output_shapes"
    value {
      list {
        shape {
          dim {
            size: 21846
          }
        }
      }
    }
  }
  attr {
    key: "dtype"
    value {
      type: DT_INT64
    }
  }
  attr {
    key: "value"
    value {
      tensor {
        dtype: DT_INT64
        tensor_shape {
          dim {
            size: 21846
          }
        }
        tensor_content: "+\003\000\000\000\000\000\000\027\003\000\000\000\000\000\0001\003\000\000\000\000\000\000\342\003\000\000\000\000\000\000+\003\000\000\000\000\000\000\004\003\000\000\000\000\000\000W\003\000\000\000\000\000\000;\003\000\000\000\000\000\000\032\003\000\000\000\000\000\000\030\003\000\000\000\000\000\000f\003\000\000\000\000\000\000\022\003\000\000\000\000\000\000\007\003\000\000\000\000\000\000+\003\000\000\000\000\000\000<\003\000\000\000\000\000\000%\003\000\000\000\000\000\000 \003\000\000\000\000\000\000Z\003\000\000\000\000\000\0009\003\000\000\000\000\000\000D\003\000\000\000\000\000\000\025\003\000\000\000\000\000\000L\003\000\000\000\000\000\0006\003\000\000\000\000\000\000#\003\000\000\000\000\000\000\035\003\000\000\000\000\000\000?\003\000\000\000\000\000\000+\003\000\000\000\000\000\000\014\003\000\000\000\000\000\000I\003\000\000\000\000\000\000>\003\000\000\000\000\000\000\n\003\000\000\000\000\000\000\014\003\000\000\000\000\000\000X\003\000\000\000\000\000\0006\003\000\000\000\000\000\000\022\003\000\000\000\000\000\0000\003\000\000\000\000\000\000R\003\000\000\000\000\000\000+\003\000\000\000\000\000\000\004\003\000\000\000\000\000\000#\003\000\000\000\000\000\0009\003\000\000\000\000\000\000\n\003\000\000\000\000\000\000\025\003\000\000\000\000\000\0000\003\000\000\000\000\000\000>\003\000\000\000\000\000\000\020\003\000\000\000\000\000\000?\003\000\000\000\000\000\000>\003\000\000\000\000\000\0006\003\000\000\000\000\000\000\n\003\000\000\000\000\000\000.\003\000\000\000\000\000\000O\003\000\000\000\000\000\000\033\003\000\000\000\000\000\000\035\003\000\000\000\000\000\0009\003\000\000\000\000\000\000U\003\000\000\000\000\000\000\377\002\000\000\000\000\000\000#\003\000\000\000\000\000\000D\003\000\000\000\000\000\000<\003\000\000\000\000\000\000\r\003\000\000\000\000\000\000.\003\000\000\000\000\000\000_\003\000\000\000\000\000\000\025\003\000\000\000\000\000\000#\003\000\000\000\000\000\0004\003\000\000\000\000\000\000G\003\000\000\000\000\000\000\004\003\000\000\000\000\000\000\032\003\000\000\000\000\000\000.\003\000\000\000\000\000\0006\003\000\000\000\000\000\000\351\002\000\000\000\000\000\000\r\003\000\000\000\000\000\000`\003\000\000\000\000\000\000#\003\000\000\000\000\000\000\022\003\000\000\000\000\000\000\035\003\000\000\000\000\000\000O\003\000\000\000\000\000\000\007\003\000\000\000\000\000\000\014\003\000\000\000\000\000\0009\003\000\000\000\000\000\000\035\003\000\000\000\000\000\000\025\003\000\000\000\000\000\000\371\002\000\000\000\000\000\0004\003\000\000\000\000\000\000(\003\000\000\000\000\000\000\n\003\000\000\000\000\000\000\022\003\000\000\000\000\000\0003\003\000\000\000\000\000\000&\003\000\000\000\000\000\000\007\003\000\000\000\000\000\000&\003\000\000\000\000\000\0006\003\000\000\000\000\000\000\002\003\000\000\000\000\000\000\007\003\000\000\000\000\000\000\022\003\000\000\000\000\000\0003\003\000\000\000\000\000\000\361\002\000\000\000\000\000\000\020\003\000\000\000\000\000\000+\003\000\000\000\000\000\000<\003\000\000\000\000\000\000\001\003\000\000\000\000\000\000 \003\000\000\000\000\000\000D\003\000\000\000\000\000\000 \003\000\000\000\000\000\000\"\003\000\000\000\000\000\000\025\003\000\000\000\000\000\000O\003\000\000\000\000\000\000\025\003\000\000\000\000\000\000\035\003\000\000\000\000\000\000.\003\000\000\000\000\000\000<\003\000\000\000\000\000\000\033\003\000\000\000\000\000\000\001\003\000\000\000\000\000\000\n\002\000\000\000\000\000\000M\003\000\000\000\000\000\000\007\003\000\000\000\000\000\000+\003\000\000\000\000\000\000O\003\000\000\000\000\000\000.\003\000\000\000\000\000\000\025\003\000\000\000\000\000\000;\003\000\000\000\000\000\000>\003\000\000\000\000\000\000.\003\000\000\000\000\000\000\033\003\000\000\000\000\000\000J\003\000\000\000\000\000\000A\003\000\000\000\000\000\000\035\003\000\000\000\000\000\000`\002\000\000\000\000\000\000A\003\000\000\000\000\000\000>\003\000\000\000\000\000\000\356\002\000\000\000\000\000\000,\003\000\000\000\000\000\000(\003\000\000\000\000\000\000 \003\000\000\000\000\000\000\376\002\000\000\000\000\000\000I\003\000\000\000\000\000\000?\003\000\000\000\000\000\000\027\003\000\000\000\000\000\000\035\003\000\000\000\000\000\000A\003\000\000\000\000\000\000D\003\000\000\000\000\000\000\017\003\000\000\000\000\000\000G\003\000\000\000\000\000\000M\003\000\000\000\000\000\000D\003\000\000\000\000\000\000\001\003\000\000\000\000\000\000D\003\000\000\000\000\000\000G\003\000\000\000\000\000\000\030\003\000\000\000\000\000\000#\003\000\000\000\000\000\000<\003\000\000\000\000\000\000D\003\000\000\000\000\000\000\017\003\000\000\000\000\000\000;\003\000\000\000\000\000\0003\003\000\000\000\000\000\000(\003\000\000\000\000\000\000\027\003\000\000\000\000\000\0004\003\000\000\000\000\000\000G\003\000\000\000\000\000\000%\003\000\000\000\000\000\000.\003\000\000\000\000\000\000J\003\000\000\000\000\000\000W\003\000\000\000\000\000\000\005\003\000\000\000\000\000\0006\003\000\000\000\000\000\000<\003\000\000\000\000\000\000+\003\000\000\000\000\000\000\t\003\000\000\000\000\000\0003\003\000\000\000\000\000\000#\002\000\000\000\000\000\000 \003\000\000\000\000\000\000\027\003\000\000\000\000\000\000%\003\000\000\000\000\000\000 \003\000\000\000\000\000\000\020\003\000\000\000\000\000\000\r\003\000\000\000\000\000\000;\003\000\000\000\000\000\0009\003\000\000\000\000\000\000\027\003\000\000\000\000\000\000#\003\000\000\000\000\000\000W\003\000\000\000\000\000\000\032\003\000\000\000\000\000\000\002\003\000\000\000\000\000\0009\003\000\000\000\000\000\0009\003\000\000\000\000\000\000\022\003\000\000\000\000\000\000\035\003\000\000\000\000\000\000M\003\000\000\000\000\000\000?\003\000\000\000\000\000\000\014\003\000\000\000\000\000\000\032\003\000\000\000\000\000\0009\003\000\000\000\000\000\000&\003\000\000\000\000\000\000\r\003\000\000\000\000\000\000+\003\000\000\000\000\000\000 \003\000\000\000\000\000\000\n\003\000\000\000\000\000\000\350\002\000\000\000\000\000\000\027\003\000\000\000\000\000\000\030\003\000\000\000\000\000\000\014\003\000\000\000\000\000\000\004\003\000\000\000\000\000\000\025\003\000\000\000\000\000\000M\003\000\000\000\000\000\000\020\003\000\000\000\000\000\000?\003\000\000\000\000\000\000h\003\000\000\000\000\000\000M\003\000\000\000\000\000\000\014\003\000\000\000\000\000\000%\003\000\000\000\000\000\000]\003\000\000\000\000\000\000\364\002\000\000\000\000\000\000\033\003\000\000\000\000\000\000\030\003\000\000\000\000\000\000.\003\000\000\000\000\000\000\002\003\000\000\000\000\000\000\356\002\000\000\000\000\000\000 \003\000\000\000\000\000\000#\003\000\000\000\000\000\000\253\003\000\000\000\000\000\000\323\002\000\000\000\000\000\000#\003\000\000\000\000\000\000\317\002\000\000\000\000\000\000\267\002\000\000\000\000\000\000\305\002\000\000\000\000\000\000\315\002\000\000\000\000\000\000\361\002\000\000\000\000\000\000\261\002\000\000\000\000\000\000\264\002\000\000\000\000\000\000\363\002\000\000\000\000\000\000\335\002\000\000\000\000\000\000\371\002\000\000\000\000\000\000\277\002\000\000\000\000\000\000\377\002\000\000\000\000\000\000#\003\000\000\000\000\000\000\353\002\000\000\000\000\000\000\007\003\000\000\000\000\000\000\007\003\000\000\000\000\000\0000\003\000\000\000\000\000\000\377\002\000\000\000\000\000\000\007\003\000\000\000\000\000\000.\003\000\000\000\000\000\000\017\003\000\000\000\000\000\000\361\002\000\000\000\000\000\000\317\002\000\000\000\000\000\000\364\002\000\000\000\000\000\000\333\002\000\000\000\000\000\000\267\002\000\000\000\000\000\000\317\002\000\000\000\000\000\000\361\002\000\000\000\000\000\000\007\003\000\000\000\000\000\000\343\002\000\000\000\000\000\000\351\002\000\000\000\000\000\000+\003\000\000\000\000\000\000\002\003\000\000\000\000\000\000\345\002\000\000\000\000\000\000\335\002\000\000\000\000\000\000\007\003\000\000\000\000\000\000\024\003\000\000\000\000\000\000\330\002\000\000\000\000\000\000\364\002\000\000\000\000\000\000\366\002\000\000\000\000\000\000.\003\000\000\000\000\000\000\333\002\000\000\000\000\000\000\361\002\000\000\000\000\000\0004\003\000\000\000\000\000\000\004\003\000\000\000\000\000\000\001\003\000\000\000\000\000\000\351\002\000\000\000\000\000\0009\003\000\000\000\000\000\000\346\002\000\000\000\000\000\000\276\002\000\000\000\000\000\000\330\002\000\000\000\000\000\000\340\002\000\000\000\000\000\000\366\002\000\000\000\000\000\000\236\002\000\000\000\000\000\000\272\002\000\000\000\000\000\000\320\002\000\000\000\000\000\000\320\002\000\000\000\000\000\000\261\002\000\000\000\000\000\000\264\002\000\000\000\000\000\000\340\002\000\000\000\000\000\000\367\002\000\000\000\000\000\000\327\002\000\000\000\000\000\000\353\002\000\000\000\000\000\000\356\002\000\000\000\000\000\000\007\003\000\000\000\000\000\000\322\002\000\000\000\000\000\000\276\002\000\000\000\000\000\000\377\002\000\000\000\000\000\000\353\002\000\000\000\000\000\000\356\002\000\000\000\000\000\000\356\002\000\000\000\000\000\000\007\003\000\000\000\000\000\000A\003\000\000\000\000\000\000\374\002\000\000\000\000\000\000\004\003\000\000\000\000\000\0000\003\000\000\000\000\000\000\333\003\000\000\000\000\000\000\014\003\000\000\000\000\000\000\005\003\000\000\000\000\000\0003\003\000\000\000\000\000\000\025\003\000\000\000\000\000\000\004\003\000\000\000\000\000\000\374\002\000\000\000\000\000\000\032\003\000\000\000\000\000\000\030\003\000\000\000\000\000\000\351\002\000\000\000\000\000\000\361\002\000\000\000\000\000\000\367\002\000\000\000\000\000\000\372\002\000\000\000\000\000\000\312\002\000\000\000\000\000\000\333\002\000\000\000\000\000\000\361\002\000\000\000\000\000\000\340\002\000\000\000\000\000\000\325\002\000\000\000\000\000\000\320\002\000\000\000\000\000\000\036\003\000\000\000\000\000\000\366\002\000\000\000\000\000\000\361\002\000\000\000\000\000\000\030\003\000\000\000\000\000\000I\003\000\000\000\000\000\000&\003\000\000\000\000\000\000\025\003\000\000\000\000\000\0009\003\000\000\000\000\000\000Z\003\000\000\000\000\000\000\"\003\000\000\000\000\000\000\033\003\000\000\000\000\000\0004\003\000\000\000\000\000\000G\003\000\000\000\000\000\000\t\003\000\000\000\000\000\0000\003\000\000\000\000\000\000>\003\000\000\000\000\000\000)\003\000\000\000\000\000\000\022\003\000\000\000\000\000\000I\003\000\000\000\000\000\0001\003\000\000\000\000\000\000\025\003\000\000\000\000\000\000\n\003\000\000\000\000\000\000\035\003\000\000\000\000\000\0001\003\000\000\000\000\000\000\356\002\000\000\000\000\000\000\001\003\000\000\000\000\000\000+\003\000\000\000\000\000\000\030\003\000\000\000\000\000\000\361\002\000\000\000\000\000\000\371\002\000\000\000\000\000\000\035\003\000\000\000\000\000\000\004\003\000\000\000\000\000\000\374\002\000\000\000\000\000\000\366\002\000\000\000\000\000\000\007\003\000\000\000\000\000\000\371\002\000\000\000\000\000\000\325\002\000\000\000\000\000\000\374\002\000\000\000\000\000\000\032\003\000\000\000\000\000\000\366\002\000\000\000\000\000\000\004\003\000\000\000\000\000\000\n\003\000\000\000\000\000\000D\003\000\000\000\000\000\000\007\003\000\000\000\000\000\000\007\003\000\000\000\000\000\000\032\003\000\000\000\000\000\000J\003\000\000\000\000\000\000\366\002\000\000\000\000\000\000\371\002\000\000\000\000\000\000+\003\000\000\000\000\000\000%\003\000\000\000\000\000\000\005\003\000\000\000\000\000\000\376\002\000\000\000\000\000\000&\003\000\000\000\000\000\000\001\003\000\000\000\000\000\000\374\002\000\000\000\000\000\000\350\002\000\000\000\000\000\000 \003\000\000\000\000\000\000\025\003\000\000\000\000\000\000\346\002\000\000\000\000\000\000\022\003\000\000\000\000\000\000)\003\000\000\000\000\000\000\007\003\000\000\000\000\000\000\004\003\000\000\000\000\000\000\002\003\000\000\000\000\000\0001\003\000\000\000\000\000\000\354\002\000\000\000\000\000\000\022\003\000\000\000\000\000\000\027\003\000\000\000\000\000\000B\003\000\000\000\000\000\000\374\002\000\000\000\000\000\000\001\003\000\000\000\000\000\0000\003\000\000\000\000\000\000\027\003\000\000\000\000\000\000\n\003\000\000\000\000\000\000\336\002\000\000\000\000\000\000.\003\000\000\000\000\000\000\n\003\000\000\000\000\000\000\361\002\000\000\000\000\000\000\364\002\000\000\000\000\000\000&\003\000\000\000\000\000\000\022\003\000\000\000\000\000\000\366\002\000\000\000\000\000\000\005\003\000\000\000\000\000\000\032\003\000\000\000\000\000\000\024\003\000\000\000\000\000\000\004\003\000\000\000\000\000\000\377\002\000\000\000\000\000\000>\003\000\000\000\000\000\000\374\002\000\000\000\000\000\000\353\002\000\000\000\000\000\000\025\003\000\000\000\000\000\000\036\003\000\000\000\000\000\000\376\002\000\000\000\000\000\000\353\002\000\000\000\000\000\000%\003\000\000\000\000\000\000\r\003\000\000\000\000\000\000\017\003\000\000\000\000\000\000\333\002\000\000\000\000\000\000%\003\000\000\000\000\000\000\036\003\000\000\000\000\000\000\346\002\000\000\000\000\000\000\366\002\000\000\000\000\000\000\025\003\000\000\000\000\000\000\356\002\000\000\000\000\000\000\351\002\000\000\000\000\000\000\277\002\000\000\000\000\000\000\345\002\000\000\000\000\000\000\317\002\000\000\000\000\000\000\256\002\000\000\000\000\000\000\307\002\000\000\000\000\000\000\340\002\000\000\000\000\000\000\356\002\000\000\000\000\000\000\304\002\000\000\000\000\000\000\353\002\000\000\000\000\000\000\371\002\000\000\000\000\000\0004\003\000\000\000\000\000\000\342\002\000\000\000\000\000\000\366\002\000\000\000\000\000\000\022\003\000\000\000\000\000\000+\003\000\000\000\000\000\000\373\002\000\000\000\000\000\000\017\003\000\000\000\000\000\000\027\003\000\000\000\000\000\000G\003\000\000\000\000\000\000\353\002\000\000\000\000\000\000)\003\000\000\000\000\000\000\025\003\000\000\000\000\000\0009\003\000\000\000\000\000\000\353\002\000\000\000\000\000\000J\003\000\000\000\000\000\000\007\003\000\000\000\000\000\000\027\003\000\000\000\000\000\000\351\002\000\000\000\000\000\000 \003\000\000\000\000\000\000\017\003\000\000\000\000\000\000\307\002\000\000\000\000\000\000\274\002\000\000\000\000\000\000\350\002\000\000\000\000\000\000\325\002\000\000\000\000\000\000\340\002\000\000\000\000\000\000\271\002\000\000\000\000\000\000\n\003\000\000\000\000\000\000\367\002\000\000\000\000\000\000\366\002\000\000\000\000\000\000\366\002\000\000\000\000\000\000 \003\000\000\000\000\000\000&\003\000\000\000\000\000\000\017\003\000\000\000\000\000\000%\003\000\000\000\000\000\0009\003\000\000\000\000\000\000(\003\000\000\000\000\000\000\035\003\000\000\000\000\000\000\376\002\000\000\000\000\000\000>\003\000\000\000\000\000\000\025\003\000\000\000\000\000\000\007\003\000\000\000\000\000\000\030\003\000\000\000\000\000\0009\003\000\000\000\000\000\000\361\002\000\000\000\000\000\000\377\002\000\000\000\000\000\0006\003\000\000\000\000\000\000#\003\000\000\000\000\000\000\025\003\000\000\000\000\000\000\014\003\000\000\000\000\000\0009\003\000\000\000\000\000\000+\003\000\000\000\000\000\000\363\002\000\000\000\000\000\000\004\003\000\000\000\000\000\000\r\003\000\000\000\000\000\000<\003\000\000\000\000\000\000\325\002\000\000\000\000\000\000 \003\000\000\000\000\000\0006\003\000\000\000\000\000\000\025\003\000\000\000\000\000\000\266\003\000\000\000\000\000\000G\003\000\000\000\000\000\0006\003\000\000\000\000\000\000\n\003\000\000\000\000\000\000\002\003\000\000\000\000\000\000 \003\000\000\000\000\000\000.\003\000\000\000\000\000\000\363\002\000\000\000\000\000\000\374\002\000\000\000\000\000\0003\003\000\000\000\000\000\000&\003\000\000\000\000\000\000\371\002\000\000\000\000\000\000\002\003\000\000\000\000\000\000G\003\000\000\000\000\000\000\"\003\000\000\000\000\000\000\r\003\000\000\000\000\000\000\025\003\000\000\000\000\000\0001\003\000\000\000\000\000\000\032\003\000\000\000\000\000\000\374\002\000\000\000\000\000\000<\003\000\000\000\000\000\0000\003\000\000\000\000\000\000\027\003\000\000\000\000\000\000\007\003\000\000\000\000\000\000D\003\000\000\000\000\000\000\030\003\000\000\000\000\000\000\376\002\000\000\000\000\000\000\007\003\000\000\000\000\000\0006\003\000\000\000\000\000\000+\003\000\000\000\000\000\000\t\003\000\000\000\000\000\000 \003\000\000\000\000\000\000G\003\000\000\000\000\000\000.\003\000\000\000\000\000\000\001\003\000\000\000\000\000\0003\003\000\000\000\000\000\000G\003\000\000\000\000\000\000\356\002\000\000\000\000\000\000\036\003\000\000\000\000\000\000\025\003\000\000\000\000\000\000I\003\000\000\000\000\000\000\333\002\000\000\000\000\000\000+\003\000\000\000\000\000\000\004\003\000\000\000\000\000\000 \003\000\000\000\000\000\000M\002\000\000\000\000\000\000G\003\000\000\000\000\000\000F\003\000\000\000\000\000\000\n\003\000\000\000\000\000\000q\003\000\000\000\000\000\000\377\002\000\000\000\000\000\000L\003\000\000\000\000\000\000\340\002\000\000\000\000\000\000\t\003\000\000\000\000\000\000 \003\000\000\000\000\000\000\"\003\000\000\000\000\000\000\007\003\000\000\000\000\000\000\004\003\000\000\000\000\000\000\377\003\000\000\000\000\000\000A\003\000\000\000\000\000\000\022\003\000\000\000\000\000\000 \003\000\000\000\000\000\0006\003\000\000\000\000\000\000.\003\000\000\000\000\000\000\004\003\000\000\000\000\000\000\032\003\000\000\000\000\000\000q\002\000\000\000\000\000\000.\003\000\000\000\000\000\000\020\003\000\000\000\000\000\000\360\003\000\000\000\000\000\000D\003\000\000\000\000\000\000.\003\000\000\000\000\000\000>\003\000\000\000\000\000\000P\003\000\000\000\000\000\000<\003\000\000\000\000\000\000\020\003\000\000\000\000\000\000O\003\000\000\000\000\000\0006\003\000\000\000\000\000\000 \003\000\000\000\000\000\000\n\003\000\000\000\000\000\000R\003\000\000\000\000\000\000I\003\000\000\000\000\000\000&\003\000\000\000\000\000\000+\003\000\000\000\000\000\000J\003\000\000\000\000\000\000I\003\000\000\000\000\000\000\t\003\000\000\000\000\000\000M\003\000\000\000\000\000\0004\003\000\000\000\000\000\000\035\003\000\000\000\000\000\000\030\003\000\000\000\000\000\000[\003\000\000\000\000\000\000G\003\000\000\000\000\000\000\"\003\000\000\000\000\000\000+\003\000\000\000\000\000\000A\003\000\000\000\000\000\0004\003\000\000\000\000\000\000\001\003\000\000\000\000\000\0000\003\000\000\000\000\000\000G\003\000\000\000\000\000\000)\003\000\000\000\000\000\000\035\003\000\000\000\000\000\000O\003\000\000\000\000\000\000U\003\000\000\000\000\000\000\007\003\000\000\000\000\000\000 \003\000\000\000\000\000\000L\003\000\000\000\000\000\000&\003\000\000\000\000\000\000\014\003\000\000\000\000\000\000.\003\000\000\000\000\000\0006\003\000\000\000\000\000\000\025\003\000\000\000\000\000\000\035\003\000\000\000\000\000\000\032\003\000\000\000\000\000\0003\003\000\000\000\000\000\000 \003\000\000\000\000\000\000\271\003\000\000\000\000\000\000O\003\000\000\000\000\000\000L\003\000\000\000\000\000\000\377\002\000\000\000\000\000\000\r\003\000\000\000\000\000\000W\003\000\000\000\000\000\000\017\003\000\000\000\000\000\000\030\003\000\000\000\000\000\000\261\003\000\000\000\000\000\000D\003\000\000\000\000\000\000\374\002\000\000\000\000\000\000&\003\000\000\000\000\000\0006\003\000\000\000\000\000\000(\003\000\000\000\000\000\000\035\003\000\000\000\000\000\000\007\003\000\000\000\000\000\000<\003\000\000\000\000\000\000\036\003\000\000\000\000\000\000\022\003\000\000\000\000\000\000\032\003\000\000\000\000\000\000R\003\000\000\000\000\000\000\007\003\000\000\000\000\000\000\354\002\000\000\000\000\000\000\"\003\000\000\000\000\000\000 \003\000\000\000\000\000\000\017\003\000\000\000\000\000\000\351\002\000\000\000\000\000\000\r\003\000\000\000\000\000\000+\003\000\000\000\000\000\000\363\002\000\000\000\000\000\000 \003\000\000\000\000\000\000+\003\000\000\000\000\000\000]\003\000\000\000\000\000\000\001\003\000\000\000\000\000\0006\003\000\000\000\000\000\000B\003\000\000\000\000\000\000\032\003\000\000\000\000\000\000\025\003\000\000\000\000\000\000\030\003\000\000\000\000\000\000L\003\000\000\000\000\000\000\353\002\000\000\000\000\000\000\030\003\000\000\000\000\000\000\374\002\000\000\000\000\000\000M\003\000\000\000\000\000\000\315\002\000\000\000\000\000\000#\003\000\000\000\000\000\000\025\003\000\000\000\000\000\000J\003\000\000\000\000\000\000\322\002\000\000\000\000\000\000 \003\000\000\000\000\000\000\022\003\000\000\000\000\000\000\"\003\000\000\000\000\000\000c\002\000\000\000\000\000\0007\003\000\000\000\000\000\000J\003\000\000\000\000\000\000\004\003\000\000\000\000\000\000\n\003\000\000\000\000\000\000+\003\000\000\000\000\000\000<\003\000\000\000\000\000\000\374\002\000\000\000\000\000\000\363\002\000\000\000\000\000\0001\003\000\000\000\000\000\000 \003\000\000\000\000\000\000\371\002\000\000\000\000\000\000\025\003\000\000\000\000\000\0009\003\000\000\000\000\000\000&\003\000\000\000\000\000\000\r\003\000\000\000\000\000\000?\003\000\000\000\000\000\000+\003\000\000\000\000\000\000,\003\000\000\000\000\000\000\366\002\000\000\000\000\000\000<\003\000\000\000\000\000\000<\003\000\000\000\000\000\0009\003\000\000\000\000\000\000\030\003\000\000\000\000\000\000Z\003\000\000\000\000\000\0009\003\000\000\000\000\000\000\n\003\000\000\000\000\000\000\036\003\000\000\000\000\000\000A\003\000\000\000\000\000\000\022\003\000\000\000\000\000\000\377\002\000\000\000\000\000\0004\003\000\000\000\000\000\0006\003\000\000\000\000\000\000\007\003\000\000\000\000\000\000+\003\000\000\000\000\000\0001\002\000\000\000\000\000\000J\003\000\000\000\000\000\000\374\002\000\000\000\000\000\000\032\003\000\000\000\000\000\0001\003\000\000\000\000\000\000<\003\000\000\000\000\000\000\004\003\000\000\000\000\000\000%\003\000\000\000\000\000\000L\003\000\000\000\000\000\000\030\003\000\000\000\000\000\000\020\003\000\000\000\000\000\0004\003\000\000\000\000\000\000J\003\000\000\000\000\000\000\022\003\000\000\000\000\000\000 \003\000\000\000\000\000\0004\003\000\000\000\000\000\000&\003\000\000\000\000\000\000\023\003\000\000\000\000\000\000&\003\000\000\000\000\000\000D\003\000\000\000\000\000\000\024\003\000\000\000\000\000\000\022\003\000\000\000\000\000\0007\003\000\000\000\000\000\000L\003\000\000\000\000\000\000\014\003\000\000\000\000\000\000\022\003\000\000\000\000\000\000R\003\000\000\000\000\000\000.\003\000\000\000\000\000\000%\003\000\000\000\000\000\000\n\003\000\000\000\000\000\000R\003\000\000\000\000\000\000\035\003\000\000\000\000\000\000(\003\000\000\000\000\000\000\n\003\000\000\000\000\000\000J\003\000\000\000\000\000\000\023\003\000\000\000\000\000\000\001\003\000\000\000\000\000\000#\003\000\000\000\000\000\000<\003\000\000\000\000\000\000\002\003\000\000\000\000\000\000\014\003\000\000\000\000\000\000A\003\000\000\000\000\000\000+\003\000\000\000\000\000\000\211\003\000\000\000\000\000\000U\002\000\000\000\000\000\000;\003\000\000\000\000\000\0009\003\000\000\000\000\000\000\002\003\000\000\000\000\000\0004\003\000\000\000\000\000\0009\003\000\000\000\000\000\000G\003\000\000\000\000\000\000\002\003\000\000\000\000\000\000<\003\000\000\000\000\000\000G\003\000\000\000\000\000\000\030\003\000\000\000\000\000\000\025\003\000\000\000\000\000\000Z\003\000\000\000\000\000\000O\003\000\000\000\000\000\000\n\003\000\000\000\000\000\000B\003\000\000\000\000\000\000?\003\000\000\000\000\000\000%\003\000\000\000\000\000\000\017\003\000\000\000\000\000\000\030\002\000\000\000\000\000\000G\003\000\000\000\000\000\000\032\003\000\000\000\000\000\000 \003\000\000\000\000\000\000&\002\000\000\000\000\000\000U\003\000\000\000\000\000\000\017\003\000\000\000\000\000\000\022\003\000\000\000\000\000\000G\003\000\000\000\000\000\000.\003\000\000\000\000\000\000\032\003\000\000\000\000\000\000&\003\000\000\000\000\000\000c\003\000\000\000\000\000\000 \003\000\000\000\000\000\0004\003\000\000\000\000\000\000Z\002\000\000\000\000\000\000c\003\000\000\000\000\000\000\017\003\000\000\000\000\000\000<\003\000\000\000\000\000\000\332\003\000\000\000\000\000\0006\003\000\000\000\000\000\000\005\003\000\000\000\000\000\000.\003\000\000\000\000\000\000;\003\000\000\000\000\000\000\030\003\000\000\000\000\000\000\025\003\000\000\000\000\000\000J\003\000\000\000\000\000\000U\003\000\000\000\000\000\000\035\003\000\000\000\000\000\000 \003\000\000\000\000\000\000W\003\000\000\000\000\000\0006\003\000\000\000\000\000\000 \003\000\000\000\000\000\000)\003\000\000\000\000\000\000U\003\000\000\000\000\000\000%\003\000\000\000\000\000\000\302\003\000\000\000\000\000\0003\003\000\000\000\000\000\000D\003\000\000\000\000\000\000\025\003\000\000\000\000\000\000 \003\000\000\000\000\000\000I\003\000\000\000\000\000\000\335\003\000\000\000\000\000\000\035\003\000\000\000\000\000\000\024\003\000\000\000\000\000\000[\003\000\000\000\000\000\000\035\003\000\000\000\000\000\000\027\003\000\000\000\000\000\000.\003\000\000\000\000\000\000T\003\000\000\000\000\000\000\004\003\000\000\000\000\000\000\025\003\000\000\000\000\000\000c\003\000\000\000\000\000\0007\003\000\000\000\000\000\000\014\003\000\000\000\000\000\000\025\003\000\000\000\000\000\000I\003\000\000\000\000\000\000<\003\000\000\000\000\000\000#\003\000\000\000\000\000\0003\003\000\000\000\000\000\000I\003\000\000\000\000\000\0009\003\000\000\000\000\000\000 \003\000\000\000\000\000\000U\003\000\000\000\000\000\000P\003\000\000\000\000\000\000+\003\000\000\000\000\000\000\027\003\000\000\000\000\000\000h\003\000\000\000\000\000\0001\003\000\000\000\000\000\000 \003\000\000\000\000\000\000%\003\000\000\000\000\000\000]\003\000\000\000\000\000\000\030\003\000\000\000\000\000\000 \003\000\000\000\000\000\000U\003\000\000\000\000\000\0000\003\000\000\000\000\000\000\030\003\000\000\000\000\000\000\022\003\000\000\000\000\000\000D\003\000\000\000\000\000\000\035\003\000\000\000\000\000\000\027\003\000\000\000\000\000\000\023\003\000\000\000\000\000\000A\003\000\000\000\000\000\000\032\003\000\000\000\000\000\000\356\002\000\000\000\000\000\000\025\003\000\000\000\000\000\000&\003\000\000\000\000\000\000\007\003\000\000\000\000\000\000\007\003\000\000\000\000\000\000<\003\000\000\000\000\000\000I\003\000\000\000\000\000\000\030\003\000\000\000\000\000\0006\003\000\000\000\000\000\000F\003\000\000\000\000\000\0007\003\000\000\000\000\000\000\022\003\000\000\000\000\000\000G\003\000\000\000\000\000\000G\003\000\000\000\000\000\000.\003\000\000\000\000\000\000\n\003\000\000\000\000\000\000B\003\000\000\000\000\000\0006\003\000\000\000\000\000\000\022\003\000\000\000\000\000\000\030\003\000\000\000\000\000\000<\003\000\000\000\000\000\000\030\003\000\000\000\000\000\000\374\002\000\000\000\000\000\000<\003\000\000\000\000\000\000\355\003\000\000\000\000\000\000 \003\000\000\000\000\000\000\027\003\000\000\000\000\000\0004\003\000\000\000\000\000\000I\003\000\000\000\000\000\000\033\003\000\000\000\000\000\000\r\003\000\000\000\000\000\000;\003\000\000\000\000\000\0009\003\000\000\000\000\000\000\001\003\000\000\000\000\000\000\035\003\000\000\000\000\000\000O\003\000\000\000\000\000\000\032\003\000\000\000\000\000\000\020\003\000\000\000\000\000\000(\003\000\000\000\000\000\000G\003\000\000\000\000\000\000\366\002\000\000\000\000\000\000%\003\000\000\000\000\000\0007\003\000\000\000\000\000\000M\003\000\000\000\000\000\000#\003\000\000\000\000\000\000A\003\000\000\000\000\000\000B\003\000\000\000\000\000\000A\003\000\000\000\000\000\000#\003\000\000\000\000\000\000#\003\000\000\000\000\000\000U\003\000\000\000\000\000\000\025\003\000\000\000\000\000\000#\003\000\000\000\000\000\0004\003\000\000\000\000\000\000]\003\000\000\000\000\000\000\373\002\000\000\000\000\000\000\032\003\000\000\000\000\000\000R\003\000\000\000\000\000\000J\003\000\000\000\000\000\000\035\003\000\000\000\000\000\0004\003\000\000\000\000\000\000X\003\000\000\000\000\000\000\007\003\000\000\000\000\000\000 \003\000\000\000\000\000\000i\003\000\000\000\000\000\000R\002\000\000\000\000\000\000\030\003\000\000\000\000\000\0007\003\000\000\000\000\000\000M\003\000\000\000\000\000\000A\003\000\000\000\000\000\000)\003\000\000\000\000\000\000;\003\000\000\000\000\000\000W\003\000\000\000\000\000\000 \003\000\000\000\000\000\000(\003\000\000\000\000\000\0003\003\000\000\000\000\000\000R\003\000\000\000\000\000\000\t\003\000\000\000\000\000\000\036\003\000\000\000\000\000\000G\003\000\000\000\000\000\000<\003\000\000\000\000\000\000\n\003\000\000\000\000\000\0003\003\000\000\000\000\000\000^\003\000\000\000\000\000\000&\003\000\000\000\000\000\000\025\003\000\000\000\000\000\0003\003\000\000\000\000\000\000.\003\000\000\000\000\000\000\030\003\000\000\000\000\000\000 \003\000\000\000\000\000\000Z\003\000\000\000\000\000\0009\003\000\000\000\000\000\000\032\003\000\000\000\000\000\000-\003\000\000\000\000\000\000O\003\000\000\000\000\000\000\032\003\000\000\000\000\000\000\027\003\000\000\000\000\000\000?\003\000\000\000\000\000\000A\003\000\000\000\000\000\000\025\003\000\000\000\000\000\000\017\003\000\000\000\000\000\000]\003\000\000\000\000\000\0006\003\000\000\000\000\000\000(\003\000\000\000\000\000\0001\003\000\000\000\000\000\000O\003\000\000\000\000\000\000\035\003\000\000\000\000\000\000\032\003\000\000\000\000\000\000\025\003\000\000\000\000\000\000\022\003\000\000\000\000\000\000\371\002\000\000\000\000\000\000<\003\000\000\000\000\000\000)\003\000\000\000\000\000\000\020\003\000\000\000\000\000\000\004\003\000\000\000\000\000\000e\003\000\000\000\000\000\000\007\003\000\000\000\000\000\000\r\003\000\000\000\000\000\0003\003\000\000\000\000\000\000W\003\000\000\000\000\000\000 \003\000\000\000\000\000\000\027\003\000\000\000\000\000\000J\003\000\000\000\000\000\000%\003\000\000\000\000\000\000\"\003\000\000\000\000\000\000\007\003\000\000\000\000\000\000O\003\000\000\000\000\000\0003\003\000\000\000\000\000\000#\003\000\000\000\000\000\000#\003\000\000\000\000\000\000A\003\000\000\000\000\000\000<\003\000\000\000\000\000\000\356\002\000\000\000\000\000\0001\003\000\000\000\000\000\000\035\003\000\000\000\000\000\000\022\003\000\000\000\000\000\000\222\003\000\000\000\000\000\000W\003\000\000\000\000\000\000&\003\000\000\000\000\000\000\017\003\000\000\000\000\000\000 \003\000\000\000\000\000\000A\003\000\000\000\000\000\000\335\003\000\000\000\000\000\000\033\003\000\000\000\000\000\000\266\003\000\000\000\000\000\000>\003\000\000\000\000\000\0004\003\000\000\000\000\000\000\004\003\000\000\000\000\000\0006\003\000\000\000\000\000\000G\003\000\000\000\000\000\000\"\003\000\000\000\000\000\000-\003\000\000\000\000\000\000R\003\000\000\000\000\000\000]\003\000\000\000\000\000\000\n\003\000\000\000\000\000\000B\003\000\000\000\000\000\000\340\003\000\000\000\000\000\000+\003\000\000\000\000\000\000\014\003\000\000\000\000\000\000J\003\000\000\000\000\000\000B\003\000\000\000\000\000\000\030\003\000\000\000\000\000\000\030\003\000\000\000\000\000\000D\003\000\000\000\000\000\000\246\002\000\000\000\000\000\000\025\003\000\000\000\000\000\000(\003\000\000\000\000\000\000>\003\000\000\000\000\000\000)\003\000\000\000\000\000\000\377\002\000\000\000\000\000\000\271\002\000\000\000\000\000\000B\003\000\000\000\000\000\000\377\002\000\000\000\000\000\000\363\002\000\000\000\000\000\000\363\002\000\000\000\000\000\000\002\003\000\000\000\000\000\000\336\002\000\000\000\000\000\000\253\002\000\000\000\000\000\000\353\002\000\000\000\000\000\000\361\002\000\000\000\000\000\000\336\002\000\000\000\000\000\000\330\002\000\000\000\000\000\000\001\003\000\000\000\000\000\000.\003\000\000\000\000\000\000\363\002\000\000\000\000\000\000\n\003\000\000\000\000\000\000#\003\000\000\000\000\000\000\"\003\000\000\000\000\000\000\017\003\000\000\000\000\000\000v\003\000\000\000\000\000\000U\003\000\000\000\000\000\000\022\003\000\000\000\000\000\000\364\002\000\000\000\000\000\000 \003\000\000\000\000\000\000\033\003\000\000\000\000\000\0003\003\000\000\000\000\000\000\343\002\000\000\000\000\000\000\305\002\000\000\000\000\000\000\363\002\000\000\000\000\000\000\307\002\000\000\000\000\000\000\253\002\000\000\000\000\000\000\263\002\000\000\000\000\000\000\353\002\000\000\000\000\000\000\364\002\000\000\000\000\000\000\335\002\000\000\000\000\000\000\340\002\000\000\000\000\000\000\n\003\000\000\000\000\000\000\032\003\000\000\000\000\000\000\346\002\000\000\000\000\000\000 \003\000\000\000\000\000\000\n\003\000\000\000\000\000\000`\003\000\000\000\000\000\000\361\002\000\000\000\000\000\0001\003\000\000\000\000\000\000<\003\000\000\000\000\000\000(\003\000\000\000\000\000\000\343\002\000\000\000\000\000\000\001\003\000\000\000\000\000\000#\003\000\000\000\000\000\000\363\002\000\000\000\000\000\000\020\003\000\000\000\000\000\000\027\003\000\000\000\000\000\0006\003\000\000\000\000\000\000\002\003\000\000\000\000\000\000\n\003\000\000\000\000\000\000(\003\000\000\000\000\000\000%\003\000\000\000\000\000\000\n\003\000\000\000\000\000\000\367\002\000\000\000\000\000\000R\003\000\000\000\000\000\000\020\003\000\000\000\000\000\000\002\003\000\000\000\000\000\000\n\003\000\000\000\000\000\0001\003\000\000\000\000\000\000\t\003\000\000\000\000\000\000\001\003\000\000\000\000\000\000(\003\000\000\000\000\000\000<\003\000\000\000\000\000\000\030\003\000\000\000\000\000\000\002\003\000\000\000\000\000\000\022\003\000\000\000\000\000\0001\003\000\000\000\000\000\000\343\002\000\000\000\000\000\000\361\002\000\000\000\000\000\000\371\002\000\000\000\000\000\000\022\003\000\000\000\000\000\000\325\002\000\000\000\000\000\000\372\002\000\000\000\000\000\000#\003\000\000\000\000\000\000\030\003\000\000\000\000\000\000\371\002\000\000\000\000\000\000\377\002\000\000\000\000\000\0009\003\000\000\000\000\000\000\020\002\000\000\000\000\000\000\346\002\000\000\000\000\000\000\330\002\000\000\000\000\000\000\374\002\000\000\000\000\000\000\346\002\000\000\000\000\000\000\330\002\000\000\000\000\000\000\315\002\000\000\000\000\000\000\356\002\000\000\000\000\000\000\354\002\000\000\000\000\000\000\322\002\000\000\000\000\000\000\330\002\000\000\000\000\000\000\014\003\000\000\000\000\000\000&\003\000\000\000\000\000\000\364\002\000\000\000\000\000\000(\003\000\000\000\000\000\0001\003\000\000\000\000\000\000.\003\000\000\000\000\000\000\004\003\000\000\000\000\000\0001\003\000\000\000\000\000\000<\003\000\000\000\000\000\000&\003\000\000\000\000\000\000\030\003\000\000\000\000\000\000D\003\000\000\000\000\000\000 \003\000\000\000\000\000\000\002\003\000\000\000\000\000\000\002\003\000\000\000\000\000\000\017\003\000\000\000\000\000\000\014\003\000\000\000\000\000\000\323\002\000\000\000\000\000\000\312\002\000\000\000\000\000\000\017\003\000\000\000\000\000\000\325\002\000\000\000\000\000\000\315\002\000\000\000\000\000\000\253\002\000\000\000\000\000\000\330\002\000\000\000\000\000\000\371\002\000\000\000\000\000\000\251\002\000\000\000\000\000\000\274\002\000\000\000\000\000\000\312\002\000\000\000\000\000\000k\003\000\000\000\000\000\000\245\003\000\000\000\000\000\000\204\003\000\000\000\000\000\000e\003\000\000\000\000\000\000\221\003\000\000\000\000\000\000\222\003\000\000\000\000\000\000\212\003\000\000\000\000\000\000e\003\000\000\000\000\000\000\222\003\000\000\000\000\000\000O\003\000\000\000\000\000\000f\003\000\000\000\000\000\000\201\003\000\000\000\000\000\000Z\003\000\000\000\000\000\000O\003\000\000\000\000\000\000T\003\000\000\000\000\000\000\217\003\000\000\000\000\000\000G\003\000\000\000\000\000\000\030\003\000\000\000\000\000\000%\003\000\000\000\000\000\000\022\003\000\000\000\000\000\000\363\002\000\000\000\000\000\000\022\003\000\000\000\000\000\000J\003\000\000\000\000\000\000\022\003\000\000\000\000\000\000\007\003\000\000\000\000\000\000(\003\000\000\000\000\000\000M\003\000\000\000\000\000\0001\003\000\000\000\000\000\000\017\003\000\000\000\000\000\0009\003\000\000\000\000\000\000&\003\000\000\000\000\000\000)\003\000\000\000\000\000\000e\003\000\000\000\000\000\000\222\003\000\000\000\000\000\000\233\003\000\000\000\000\000\000~\003\000\000\000\000\000\000\227\003\000\000\000\000\000\000\227\003\000\000\000\000\000\000n\003\000\000\000\000\000\000n\003\000\000\000\000\000\000\237\003\000\000\000\000\000\000L\003\000\000\000\000\000\000\215\003\000\000\000\000\000\000\246\003\000\000\000\000\000\000e\003\000\000\000\000\000\000n\003\000\000\000\000\000\0001\003\000\000\000\000\000\000k\003\000\000\000\000\000\000>\003\000\000\000\000\000\0009\003\000\000\000\000\000\000\204\003\000\000\000\000\000\000k\003\000\000\000\000\000\000D\003\000\000\000\000\000\000G\003\000\000\000\000\000\000k\003\000\000\000\000\000\000 \003\000\000\000\000\000\000W\003\000\000\000\000\000\000i\003\000\000\000\000\000\000b\003\000\000\000\000\000\000L\003\000\000\000\000\000\000\201\003\000\000\000\000\000\000\227\003\000\000\000\000\000\000`\003\000\000\000\000\000\000n\003\000\000\000\000\000\000\215\003\000\000\000\000\000\000\004\003\000\000\000\000\000\0003\003\000\000\000\000\000\000\377\002\000\000\000\000\000\000\004\003\000\000\000\000\000\000\007\003\000\000\000\000\000\000#\003\000\000\000\000\000\000.\003\000\000\000\000\000\000\033\003\000\000\000\000\000\000G\003\000\000\000\000\000\000]\003\000\000\000\000\000\0006\003\000\000\000\000\000\000\025\003\000\000\000\000\000\000M\003\000\000\000\000\000\0009\003\000\000\000\000\000\000\007\003\000\000\000\000\000\000\007\003\000\000\000\000\000\000;\003\000\000\000\000\000\000\035\003\000\000\000\000\000\000\371\002\000\000\000\000\000\000\017\003\000\000\000\000\000\0001\003\000\000\000\000\000\000\n\003\000\000\000\000\000\0006\003\000\000\000\000\000\000.\003\000\000\000\000\000\000O\003\000\000\000\000\000\0006\003\000\000\000\000\000\000`\003\000\000\000\000\000\000\261\003\000\000\000\000\000\000q\003\000\000\000\000\000\000I\003\000\000\000\000\000\000\204\003\000\000\000\000\000\000\240\003\000\000\000\000\000\000T\003\000\000\000\000\000\000R\003\000\000\000\000\000\000\227\003\000\000\000\000\000\000f\003\000\000\000\000\000\000\245\003\000\000\000\000\000\000\242\003\000\000\000\000\000\000n\003\000\000\000\000\000\000\224\003\000\000\000\000\000\000\256\003\000\000\000\000\000\000W\003\000\000\000\000\000\000~\003\000\000\000\000\000\000\264\003\000\000\000\000\000\000R\003\000\000\000\000\000\000_\003\000\000\000\000\000\000\243\003\000\000\000\000\000\000\246\003\000\000\000\000\000\000]\003\000\000\000\000\000\000\222\003\000\000\000\000\000\000~\003\000\000\000\000\000\000-\003\000\000\000\000\000\000q\003\000\000\000\000\000\000\260\003\000\000\000\000\000\000\204\003\000\000\000\000\000\000e\003\000\000\000\000\000\000\252\003\000\000\000\000\000\000\250\003\000\000\000\000\000\000y\003\000\000\000\000\000\000\264\003\000\000\000\000\000\000\340\003\000\000\000\000\000\000W\003\000\000\000\000\000\000Z\003\000\000\000\000\000\000\277\003\000\000\000\000\000\000\202\003\000\000\000\000\000\000\225\003\000\000\000\000\000\000\211\003\000\000\000\000\000\000\263\003\000\000\000\000\000\000X\003\000\000\000\000\000\000\301\003\000\000\000\000\000\000n\003\000\000\000\000\000\000`\003\000\000\000\000\000\000f\003\000\000\000\000\000\000\301\003\000\000\000\000\000\000\222\003\000\000\000\000\000\000\302\003\000\000\000\000\000\000\353\003\000\000\000\000\000\000\253\003\000\000\000\000\000\000\220\003\000\000\000\000\000\000\317\003\000\000\000\000\000\000\271\003\000\000\000\000\000\000\261\003\000\000\000\000\000\000\260\003\000\000\000\000\000\000\322\003\000\000\000\000\000\000\222\003\000\000\000\000\000\000\360\003\000\000\000\000\000\000\322\003\000\000\000\000\000\000\217\003\000\000\000\000\000\000\261\003\000\000\000\000\000\000\366\003\000\000\000\000\000\000\240\003\000\000\000\000\000\000\277\003\000\000\000\000\000\000\363\003\000\000\000\000\000\000\276\003\000\000\000\000\000\000\271\003\000\000\000\000\000\000\t\004\000\000\000\000\000\000\211\003\000\000\000\000\000\000\253\003\000\000\000\000\000\000m\003\000\000\000\000\000\000y\003\000\000\000\000\000\000\201\003\000\000\000\000\000\000\371\003\000\000\000\000\000\000\317\003\000\000\000\000\000\000{\003\000\000\000\000\000\000\335\003\000\000\000\000\000\000\363\003\000\000\000\000\000\000\276\003\000\000\000\000\000\000\360\003\000\000\000\000\000\000\016\004\000\000\000\000\000\000\343\003\000\000\000\000\000\000\004\004\000\000\000\000\000\000\001\004\000\000\000\000\000\000\276\003\000\000\000\000\000\000\222\003\000\000\000\000\000\000\301\003\000\000\000\000\000\000\376\003\000\000\000\000\000\000\204\003\000\000\000\000\000\000\235\003\000\000\000\000\000\000\230\003\000\000\000\000\000\000\207\003\000\000\000\000\000\000G\003\000\000\000\000\000\000\332\003\000\000\000\000\000\000\270\003\000\000\000\000\000\000\307\003\000\000\000\000\000\000\337\003\000\000\000\000\000\000\260\003\000\000\000\000\000\000\212\003\000\000\000\000\000\000\365\003\000\000\000\000\000\000\277\003\000\000\000\000\000\000\233\003\000\000\000\000\000\000\263\003\000\000\000\000\000\000\373\003\000\000\000\000\000\000f\003\000\000\000\000\000\000n\003\000\000\000\000\000\000\225\003\000\000\000\000\000\000]\003\000\000\000\000\000\000]\003\000\000\000\000\000\000\356\003\000\000\000\000\000\000\001\004\000\000\000\000\000\000\335\003\000\000\000\000\000\000\033\002\000\000\000\000\000\000\355\003\000\000\000\000\000\000\317\003\000\000\000\000\000\000\004\004\000\000\000\000\000\000\277\003\000\000\000\000\000\000\325\003\000\000\000\000\000\000\035\004\000\000\000\000\000\000\004\004\000\000\000\000\000\000\317\003\000\000\000\000\000\000\035\004\000\000\000\000\000\000\345\003\000\000\000\000\000\000\345\003\000\000\000\000\000\000 \004\000\000\000\000\000\000\376\003\000\000\000\000\000\000\317\003\000\000\000\000\000\000\006\004\000\000\000\000\000\000\340\003\000\000\000\000\000\000\335\003\000\000\000\000\000\000*\004\000\000\000\000\000\000\332\003\000\000\000\000\000\000\350\003\000\000\000\000\000\000;\004\000\000\000\000\000\000\332\003\000\000\000\000\000\000\361\003\000\000\000\000\000\000>\004\000\000\000\000\000\000\332\003\000\000\000\000\000\000*\004\000\000\000\000\000\000\035\004\000\000\000\000\000\000\350\003\000\000\000\000\000\000\376\003\000\000\000\000\000\000\034\004\000\000\000\000\000\000\335\003\000\000\000\000\000\000\004\004\000\000\000\000\000\000\007\004\000\000\000\000\000\000\314\003\000\000\000\000\000\000\032\004\000\000\000\000\000\000(\004\000\000\000\000\000\000\376\003\000\000\000\000\000\000-\004\000\000\000\000\000\000\027\004\000\000\000\000\000\000\345\003\000\000\000\000\000\0005\004\000\000\000\000\000\000\007\004\000\000\000\000\000\000\356\003\000\000\000\000\000\000\353\003\000\000\000\000\000\000\345\003\000\000\000\000\000\000\207\003\000\000\000\000\000\000\014\004\000\000\000\000\000\000\324\003\000\000\000\000\000\000\306\003\000\000\000\000\000\000\364\003\000\000\000\000\000\000\014\004\000\000\000\000\000\000\252\003\000\000\000\000\000\0003\004\000\000\000\000\000\000\032\004\000\000\000\000\000\000\325\003\000\000\000\000\000\000\t\004\000\000\000\000\000\000\377\003\000\000\000\000\000\000v\003\000\000\000\000\000\000\342\003\000\000\000\000\000\000\032\004\000\000\000\000\000\000\301\003\000\000\000\000\000\000(\004\000\000\000\000\000\000\374\003\000\000\000\000\000\000\317\003\000\000\000\000\000\000\301\003\000\000\000\000\000\000\317\003\000\000\000\000\000\000\253\003\000\000\000\000\000\000\342\003\000\000\000\000\000\000\250\003\000\000\000\000\000\000\230\003\000\000\000\000\000\000\335\003\000\000\000\000\000\000\363\003\000\000\000\000\000\000e\003\000\000\000\000\000\000\225\003\000\000\000\000\000\000\314\003\000\000\000\000\000\000\245\003\000\000\000\000\000\000v\003\000\000\000\000\000\000\330\003\000\000\000\000\000\000\214\003\000\000\000\000\000\000\232\003\000\000\000\000\000\000\307\003\000\000\000\000\000\000\246\003\000\000\000\000\000\000\227\003\000\000\000\000\000\000\317\003\000\000\000\000\000\000\352\003\000\000\000\000\000\000\271\003\000\000\000\000\000\000\271\003\000\000\000\000\000\000\314\003\000\000\000\000\000\000\250\003\000\000\000\000\000\000\325\003\000\000\000\000\000\000\335\003\000\000\000\000\000\000\271\003\000\000\000\000\000\000\276\003\000\000\000\000\000\000\335\003\000\000\000\000\000\000\311\003\000\000\000\000\000\000\311\003\000\000\000\000\000\000\277\003\000\000\000\000\000\000\232\003\000\000\000\000\000\000\314\003\000\000\000\000\000\000\371\003\000\000\000\000\000\000\350\003\000\000\000\000\000\000\335\003\000\000\000\000\000\000A\004\000\000\000\000\000\000\001\004\000\000\000\000\000\000\363\003\000\000\000\000\000\000>\004\000\000\000\000\000\000\332\003\000\000\000\000\000\000\022\004\000\000\000\000\000\000\373\003\000\000\000\000\000\000\256\003\000\000\000\000\000\000\317\003\000\000\000\000\000\000\235\003\000\000\000\000\000\000\335\003\000\000\000\000\000\000\311\003\000\000\000\000\000\000\225\003\000\000\000\000\000\000\230\003\000\000\000\000\000\000\330\003\000\000\000\000\000\000\027\004\000\000\000\000\000\000\371\003\000\000\000\000\000\000\365\003\000\000\000\000\000\000\004\004\000\000\000\000\000\000\264\003\000\000\000\000\000\000\325\003\000\000\000\000\000\000\327\003\000\000\000\000\000\000\264\003\000\000\000\000\000\000\274\003\000\000\000\000\000\000\030\004\000\000\000\000\000\000\355\003\000\000\000\000\000\000\327\003\000\000\000\000\000\000 \004\000\000\000\000\000\000\366\003\000\000\000\000\000\000\314\003\000\000\000\000\000\0006\004\000\000\000\000\000\000\263\003\000\000\000\000\000\000\003\004\000\000\000\000\000\000\027\004\000\000\000\000\000\000\365\003\000\000\000\000\000\000\003\004\000\000\000\000\000\000\035\004\000\000\000\000\000\000\350\003\000\000\000\000\000\000\001\004\000\000\000\000\000\0008\004\000\000\000\000\000\000\304\003\000\000\000\000\000\000\322\003\000\000\000\000\000\000\017\004\000\000\000\000\000\000\304\003\000\000\000\000\000\000\376\003\000\000\000\000\000\000%\004\000\000\000\000\000\000\315\003\000\000\000\000\000\0006\004\000\000\000\000\000\000\022\004\000\000\000\000\000\000\007\004\000\000\000\000\000\000\037\004\000\000\000\000\000\000\003\004\000\000\000\000\000\000\335\003\000\000\000\000\000\000\017\004\000\000\000\000\000\000\025\004\000\000\000\000\000\000\253\003\000\000\000\000\000\000\025\004\000\000\000\000\000\000\356\003\000\000\000\000\000\000\317\003\000\000\000\000\000\000\001\004\000\000\000\000\000\000\352\003\000\000\000\000\000\000\335\003\000\000\000\000\000\000\035\004\000\000\000\000\000\000\n\004\000\000\000\000\000\000\371\003\000\000\000\000\000\000\037\004\000\000\000\000\000\000\030\004\000\000\000\000\000\000\366\003\000\000\000\000\000\000\032\004\000\000\000\000\000\000\373\003\000\000\000\000\000\000\260\003\000\000\000\000\000\000\024\004\000\000\000\000\000\000\322\003\000\000\000\000\000\000\345\003\000\000\000\000\000\000\014\004\000\000\000\000\000\000\311\003\000\000\000\000\000\000\327\003\000\000\000\000\000\000(\004\000\000\000\000\000\000\304\003\000\000\000\000\000\000\370\003\000\000\000\000\000\000\001\004\000\000\000\000\000\000\353\003\000\000\000\000\000\000\306\003\000\000\000\000\000\000#\004\000\000\000\000\000\000\340\003\000\000\000\000\000\000\322\003\000\000\000\000\000\000+\004\000\000\000\000\000\000\332\003\000\000\000\000\000\000\360\003\000\000\000\000\000\000\014\004\000\000\000\000\000\000\307\003\000\000\000\000\000\000\371\003\000\000\000\000\000\000\"\004\000\000\000\000\000\000\304\003\000\000\000\000\000\000\363\003\000\000\000\000\000\000\355\003\000\000\000\000\000\000\374\003\000\000\000\000\000\000\312\003\000\000\000\000\000\000;\004\000\000\000\000\000\000\332\003\000\000\000\000\000\000\373\003\000\000\000\000\000\000%\004\000\000\000\000\000\000\321\003\000\000\000\000\000\000\363\003\000\000\000\000\000\000\t\004\000\000\000\000\000\000\327\003\000\000\000\000\000\000\t\004\000\000\000\000\000\000\373\003\000\000\000\000\000\000\327\003\000\000\000\000\000\000\355\003\000\000\000\000\000\000\363\003\000\000\000\000\000\000\356\003\000\000\000\000\000\000\350\003\000\000\000\000\000\000\366\003\000\000\000\000\000\000\322\003\000\000\000\000\000\000\366\003\000\000\000\000\000\000\024\004\000\000\000\000\000\000\317\003\000\000\000\000\000\000\340\003\000\000\000\000\000\000\377\003\000\000\000\000\000\000\301\003\000\000\000\000\000\000\'\004\000\000\000\000\000\000\356\003\000\000\000\000\000\000\332\003\000\000\000\000\000\000\021\004\000\000\000\000\000\000\363\003\000\000\000\000\000\000h\003\000\000\000\000\000\000\227\003\000\000\000\000\000\000\376\003\000\000\000\000\000\000\321\003\000\000\000\000\000\000\n\004\000\000\000\000\000\000\027\004\000\000\000\000\000\000\370\003\000\000\000\000\000\000\374\003\000\000\000\000\000\000;\004\000\000\000\000\000\000\340\003\000\000\000\000\000\000\363\003\000\000\000\000\000\000\304\003\000\000\000\000\000\000\350\003\000\000\000\000\000\000\032\004\000\000\000\000\000\000\274\003\000\000\000\000\000\000\306\003\000\000\000\000\000\000\371\003\000\000\000\000\000\000\301\003\000\000\000\000\000\000\273\003\000\000\000\000\000\000\245\003\000\000\000\000\000\000U\003\000\000\000\000\000\000`\003\000\000\000\000\000\000\253\003\000\000\000\000\000\000\325\003\000\000\000\000\000\000\317\003\000\000\000\000\000\000%\004\000\000\000\000\000\000\350\003\000\000\000\000\000\000\353\003\000\000\000\000\000\000%\004\000\000\000\000\000\000\366\003\000\000\000\000\000\000\303\003\000\000\000\000\000\000\032\004\000\000\000\000\000\000\317\003\000\000\000\000\000\000\350\003\000\000\000\000\000\000\366\003\000\000\000\000\000\000\276\003\000\000\000\000\000\000e\003\000\000\000\000\000\000\325\003\000\000\000\000\000\000\322\003\000\000\000\000\000\000\332\003\000\000\000\000\000\000%\004\000\000\000\000\000\000\021\004\000\000\000\000\000\000\007\004\000\000\000\000\000\000\032\004\000\000\000\000\000\000\373\003\000\000\000\000\000\000\327\003\000\000\000\000\000\000\376\003\000\000\000\000\000\000\217\003\000\000\000\000\000\000M\003\000\000\000\000\000\000]\003\000\000\000\000\000\000\204\003\000\000\000\000\000\000n\003\000\000\000\000\000\000\215\003\000\000\000\000\000\000\350\003\000\000\000\000\000\000\301\003\000\000\000\000\000\000\306\003\000\000\000\000\000\000\317\003\000\000\000\000\000\000\214\003\000\000\000\000\000\000\317\003\000\000\000\000\000\000%\004\000\000\000\000\000\000\374\003\000\000\000\000\000\000\007\004\000\000\000\000\000\000\032\004\000\000\000\000\000\000\261\003\000\000\000\000\000\000\271\003\000\000\000\000\000\000\276\003\000\000\000\000\000\000\224\003\000\000\000\000\000\000\225\003\000\000\000\000\000\000\350\003\000\000\000\000\000\000\250\003\000\000\000\000\000\000?\003\000\000\000\000\000\000U\003\000\000\000\000\000\000\204\003\000\000\000\000\000\000\261\003\000\000\000\000\000\000\366\003\000\000\000\000\000\000\363\003\000\000\000\000\000\000\224\003\000\000\000\000\000\000\202\003\000\000\000\000\000\000\337\003\000\000\000\000\000\000\327\003\000\000\000\000\000\000\371\003\000\000\000\000\000\000.\004\000\000\000\000\000\000\363\003\000\000\000\000\000\000\346\003\000\000\000\000\000\000\017\004\000\000\000\000\000\000\230\003\000\000\000\000\000\000\334\003\000\000\000\000\000\000\317\003\000\000\000\000\000\000P\003\000\000\000\000\000\0007\003\000\000\000\000\000\000\222\003\000\000\000\000\000\000\242\003\000\000\000\000\000\000c\003\000\000\000\000\000\000\356\003\000\000\000\000\000\000\'\004\000\000\000\000\000\000\001\004\000\000\000\000\000\000C\004\000\000\000\000\000\000\r\004\000\000\000\000\000\000\340\003\000\000\000\000\000\000\342\003\000\000\000\000\000\000\343\003\000\000\000\000\000\000\276\003\000\000\000\000\000\000\027\004\000\000\000\000\000\000\335\003\000\000\000\000\000\000\337\003\000\000\000\000\000\000\007\004\000\000\000\000\000\000\350\003\000\000\000\000\000\000\322\003\000\000\000\000\000\000\001\004\000\000\000\000\000\000\343\003\000\000\000\000\000\000\255\003\000\000\000\000\000\000\014\004\000\000\000\000\000\000\327\003\000\000\000\000\000\000\266\003\000\000\000\000\000\000\301\003\000\000\000\000\000\000\301\003\000\000\000\000\000\000\217\003\000\000\000\000\000\000\304\003\000\000\000\000\000\000\322\003\000\000\000\000\000\000\304\003\000\000\000\000\000\000\353\003\000\000\000\000\000\000\027\004\000\000\000\000\000\000\325\003\000\000\000\000\000\000\302\003\000\000\000\000\000\000\260\003\000\000\000\000\000\000`\003\000\000\000\000\000\000\250\003\000\000\000\000\000\000\312\003\000\000\000\000\000\000\322\003\000\000\000\000\000\000\322\003\000\000\000\000\000\000\r\004\000\000\000\000\000\000\263\003\000\000\000\000\000\000\335\003\000\000\000\000\000\000%\004\000\000\000\000\000\000\221\003\000\000\000\000\000\000\314\003\000\000\000\000\000\000\n\004\000\000\000\000\000\000\333\003\000\000\000\000\000\000\312\003\000\000\000\000\000\000\360\003\000\000\000\000\000\000\325\003\000\000\000\000\000\000\253\003\000\000\000\000\000\000\301\003\000\000\000\000\000\000\253\003\000\000\000\000\000\000\340\003\000\000\000\000\000\000.\004\000\000\000\000\000\000\004\004\000\000\000\000\000\000\001\004\000\000\000\000\000\000\n\004\000\000\000\000\000\000\363\003\000\000\000\000\000\000\322\003\000\000\000\000\000\0006\004\000\000\000\000\000\000\360\003\000\000\000\000\000\000\307\003\000\000\000\000\000\000\"\004\000\000\000\000\000\000\317\003\000\000\000\000\000\000\317\003\000\000\000\000\000\000\t\004\000\000\000\000\000\000\324\003\000\000\000\000\000\000\312\003\000\000\000\000\000\000?\004\000\000\000\000\000\000\301\003\000\000\000\000\000\000\322\003\000\000\000\000\000\000\001\004\000\000\000\000\000\000\327\003\000\000\000\000\000\000\304\003\000\000\000\000\000\000 \004\000\000\000\000\000\000\311\003\000\000\000\000\000\000\311\003\000\000\000\000\000\000\342\003\000\000\000\000\000\000\327\003\000\000\000\000\000\000\322\003\000\000\000\000\000\000\027\004\000\000\000\000\000\000\253\003\000\000\000\000\000\000\256\003\000\000\000\000\000\000\235\003\000\000\000\000\000\000\271\003\000\000\000\000\000\000\276\003\000\000\000\000\000\000*\004\000\000\000\000\000\000\335\003\000\000\000\000\000\000\274\003\000\000\000\000\000\000\027\004\000\000\000\000\000\000\327\003\000\000\000\000\000\000\366\003\000\000\000\000\000\000\007\004\000\000\000\000\000\000\301\003\000\000\000\000\000\000\260\003\000\000\000\000\000\000\355\003\000\000\000\000\000\000\306\003\000\000\000\000\000\000\324\003\000\000\000\000\000\000\374\003\000\000\000\000\000\000\017\004\000\000\000\000\000\000\271\003\000\000\000\000\000\000\'\004\000\000\000\000\000\000\304\003\000\000\000\000\000\000\302\003\000\000\000\000\000\000\322\003\000\000\000\000\000\000\317\003\000\000\000\000\000\000\222\003\000\000\000\000\000\000\311\003\000\000\000\000\000\000\255\003\000\000\000\000\000\000~\003\000\000\000\000\000\000\232\003\000\000\000\000\000\000\307\003\000\000\000\000\000\000\227\003\000\000\000\000\000\000\330\003\000\000\000\000\000\000\363\003\000\000\000\000\000\000\274\003\000\000\000\000\000\000\330\003\000\000\000\000\000\000\363\003\000\000\000\000\000\000\240\003\000\000\000\000\000\000\312\003\000\000\000\000\000\000\327\003\000\000\000\000\000\000\276\003\000\000\000\000\000\000\271\003\000\000\000\000\000\000\335\003\000\000\000\000\000\000\266\003\000\000\000\000\000\000\306\003\000\000\000\000\000\000\373\003\000\000\000\000\000\000\314\003\000\000\000\000\000\000\245\003\000\000\000\000\000\000\346\003\000\000\000\000\000\000\271\003\000\000\000\000\000\000\242\003\000\000\000\000\000\000\363\003\000\000\000\000\000\000\343\003\000\000\000\000\000\000\201\003\000\000\000\000\000\000\317\003\000\000\000\000\000\000\301\003\000\000\000\000\000\000\243\003\000\000\000\000\000\000\335\003\000\000\000\000\000\000\335\003\000\000\000\000\000\000\240\003\000\000\000\000\000\000\327\003\000\000\000\000\000\000\330\003\000\000\000\000\000\000\201\003\000\000\000\000\000\000\304\003\000\000\000\000\000\000\350\003\000\000\000\000\000\000\177\003\000\000\000\000\000\000\266\003\000\000\000\000\000\000\366\003\000\000\000\000\000\000\317\003\000\000\000\000\000\000\266\003\000\000\000\000\000\000\356\003\000\000\000\000\000\000\317\003\000\000\000\000\000\000\330\003\000\000\000\000\000\000\350\003\000\000\000\000\000\000\273\003\000\000\000\000\000\000\256\003\000\000\000\000\000\000\350\003\000\000\000\000\000\000\312\003\000\000\000\000\000\000\217\003\000\000\000\000\000\000\356\003\000\000\000\000\000\000\301\003\000\000\000\000\000\000\330\003\000\000\000\000\000\000\335\003\000\000\000\000\000\000\355\003\000\000\000\000\000\000\255\003\000\000\000\000\000\000\003\004\000\000\000\000\000\000\306\003\000\000\000\000\000\000\227\003\000\000\000\000\000\000\271\003\000\000\000\000\000\000\366\003\000\000\000\000\000\000\314\003\000\000\000\000\000\000\027\004\000\000\000\000\000\000\343\003\000\000\000\000\000\000\314\003\000\000\000\000\000\000\335\003\000\000\000\000\000\000\365\003\000\000\000\000\000\000\225\003\000\000\000\000\000\000\332\003\000\000\000\000\000\000\317\003\000\000\000\000\000\000\206\003\000\000\000\000\000\000\235\003\000\000\000\000\000\000\325\003\000\000\000\000\000\000\217\003\000\000\000\000\000\000\245\003\000\000\000\000\000\000\353\003\000\000\000\000\000\000\311\003\000\000\000\000\000\000\211\003\000\000\000\000\000\000\256\003\000\000\000\000\000\000k\003\000\000\000\000\000\000v\003\000\000\000\000\000\000p\003\000\000\000\000\000\000\214\003\000\000\000\000\000\000{\003\000\000\000\000\000\000v\003\000\000\000\000\000\000\273\003\000\000\000\000\000\000k\003\000\000\000\000\000\000{\003\000\000\000\000\000\000\277\003\000\000\000\000\000\000\312\003\000\000\000\000\000\000s\003\000\000\000\000\000\000\307\003\000\000\000\000\000\000\235\003\000\000\000\000\000\000\266\003\000\000\000\000\000\000\376\003\000\000\000\000\000\000\024\004\000\000\000\000\000\000\314\003\000\000\000\000\000\000\t\004\000\000\000\000\000\000\350\003\000\000\000\000\000\000\276\003\000\000\000\000\000\000\376\003\000\000\000\000\000\000\332\003\000\000\000\000\000\000\304\003\000\000\000\000\000\000\374\003\000\000\000\000\000\000\035\004\000\000\000\000\000\000\314\003\000\000\000\000\000\000\001\004\000\000\000\000\000\000\340\003\000\000\000\000\000\000\322\003\000\000\000\000\000\000\353\003\000\000\000\000\000\000\t\004\000\000\000\000\000\000\266\003\000\000\000\000\000\000\014\004\000\000\000\000\000\000\365\003\000\000\000\000\000\000\301\003\000\000\000\000\000\000\322\003\000\000\000\000\000\000\334\003\000\000\000\000\000\000\304\003\000\000\000\000\000\000\376\003\000\000\000\000\000\000\376\003\000\000\000\000\000\000\333\003\000\000\000\000\000\000\235\003\000\000\000\000\000\000\374\003\000\000\000\000\000\000\327\003\000\000\000\000\000\000\001\004\000\000\000\000\000\000\032\004\000\000\000\000\000\000\304\003\000\000\000\000\000\000\373\004\000\000\000\000\000\000\t\004\000\000\000\000\000\000\335\003\000\000\000\000\000\000\007\004\000\000\000\000\000\000\356\003\000\000\000\000\000\000\307\003\000\000\000\000\000\000>\004\000\000\000\000\000\0001\004\000\000\000\000\000\000\350\003\000\000\000\000\000\000\025\004\000\000\000\000\000\000\007\004\000\000\000\000\000\000\322\003\000\000\000\000\000\000\001\004\000\000\000\000\000\000\373\003\000\000\000\000\000\000\271\003\000\000\000\000\000\000#\004\000\000\000\000\000\000\340\003\000\000\000\000\000\000\345\003\000\000\000\000\000\000\006\004\000\000\000\000\000\000\032\004\000\000\000\000\000\000\260\003\000\000\000\000\000\000%\004\000\000\000\000\000\000\365\003\000\000\000\000\000\000\355\003\000\000\000\000\000\0000\004\000\000\000\000\000\000\370\003\000\000\000\000\000\000\266\003\000\000\000\000\000\000\356\003\000\000\000\000\000\000\350\003\000\000\000\000\000\000\324\003\000\000\000\000\000\000\376\003\000\000\000\000\000\000\370\003\000\000\000\000\000\000\243\003\000\000\000\000\000\000\017\004\000\000\000\000\000\000\350\003\000\000\000\000\000\000\317\003\000\000\000\000\000\000\027\004\000\000\000\000\000\000\322\003\000\000\000\000\000\000\361\003\000\000\000\000\000\000\371\003\000\000\000\000\000\000\317\003\000\000\000\000\000\000U\003\000\000\000\000\000\000\377\003\000\000\000\000\000\000\335\003\000\000\000\000\000\000\363\003\000\000\000\000\000\000\366\003\000\000\000\000\000\000%\004\000\000\000\000\000\000\342\003\000\000\000\000\000\000\032\004\000\000\000\000\000\000\004\004\000\000\000\000\000\000\301\003\000\000\000\000\000\000\037\004\000\000\000\000\000\000\332\003\000\000\000\000\000\000\350\003\000\000\000\000\000\000\343\003\000\000\000\000\000\000\371\003\000\000\000\000\000\000\256\003\000\000\000\000\000\0003\004\000\000\000\000\000\000\340\003\000\000\000\000\000\000\253\003\000\000\000\000\000\000\325\003\000\000\000\000\000\000\366\003\000\000\000\000\000\000\307\003\000\000\000\000\000\000(\004\000\000\000\000\000\000\001\004\000\000\000\000\000\000\340\003\000\000\000\000\000\000\n\004\000\000\000\000\000\000\022\004\000\000\000\000\000\000\340\003\000\000\000\000\000\000\032\004\000\000\000\000\000\000\004\004\000\000\000\000\000\000\363\003\000\000\000\000\000\000\022\004\000\000\000\000\000\000\335\003\000\000\000\000\000\000\307\003\000\000\000\000\000\000\017\004\000\000\000\000\000\000\004\004\000\000\000\000\000\000\274\003\000\000\000\000\000\000\035\004\000\000\000\000\000\000\335\003\000\000\000\000\000\000\335\003\000\000\000\000\000\000\004\004\000\000\000\000\000\000\255\003\000\000\000\000\000\000\232\003\000\000\000\000\000\000\274\003\000\000\000\000\000\000\237\003\000\000\000\000\000\000\246\003\000\000\000\000\000\000\342\003\000\000\000\000\000\000\027\004\000\000\000\000\000\000\314\003\000\000\000\000\000\0003\004\000\000\000\000\000\000\001\004\000\000\000\000\000\000\256\003\000\000\000\000\000\000\373\003\000\000\000\000\000\000\345\003\000\000\000\000\000\000\311\003\000\000\000\000\000\000\373\003\000\000\000\000\000\000\340\003\000\000\000\000\000\000\246\003\000\000\000\000\000\000\342\003\000\000\000\000\000\000\274\003\000\000\000\000\000\000\266\003\000\000\000\000\000\000\333\003\000\000\000\000\000\000\017\004\000\000\000\000\000\000\243\003\000\000\000\000\000\000\225\003\000\000\000\000\000\000\327\003\000\000\000\000\000\000\255\003\000\000\000\000\000\000\360\003\000\000\000\000\000\000\"\004\000\000\000\000\000\000\327\003\000\000\000\000\000\000\014\004\000\000\000\000\000\000\345\003\000\000\000\000\000\000\322\003\000\000\000\000\000\000\356\003\000\000\000\000\000\000\027\004\000\000\000\000\000\000\277\003\000\000\000\000\000\000\374\003\000\000\000\000\000\000\343\003\000\000\000\000\000\000\335\003\000\000\000\000\000\000\335\003\000\000\000\000\000\000+\004\000\000\000\000\000\000\274\003\000\000\000\000\000\000\361\003\000\000\000\000\000\000\006\004\000\000\000\000\000\000\250\003\000\000\000\000\000\000\363\003\000\000\000\000\000\000\271\003\000\000\000\000\000\000\253\003\000\000\000\000\000\000\252\003\000\000\000\000\000\000\"\004\000\000\000\000\000\000\271\003\000\000\000\000\000\000\317\003\000\000\000\000\000\000\334\003\000\000\000\000\000\000\317\003\000\000\000\000\000\000\330\003\000\000\000\000\000\000%\004\000\000\000\000\000\000\340\003\000\000\000\000\000\000\332\003\000\000\000\000\000\000 \004\000\000\000\000\000\000\350\003\000\000\000\000\000\000\361\003\000\000\000\000\000\000\004\004\000\000\000\000\000\000\335\003\000\000\000\000\000\000\007\004\000\000\000\000\000\000\016\004\000\000\000\000\000\000\256\003\000\000\000\000\000\000\271\003\000\000\000\000\000\000\222\003\000\000\000\000\000\000\260\003\000\000\000\000\000\000\263\003\000\000\000\000\000\000\021\004\000\000\000\000\000\000\263\003\000\000\000\000\000\000\366\003\000\000\000\000\000\000\366\003\000\000\000\000\000\000\342\003\000\000\000\000\000\000\355\003\000\000\000\000\000\000%\004\000\000\000\000\000\000\314\003\000\000\000\000\000\000\004\004\000\000\000\000\000\000\017\004\000\000\000\000\000\000\337\003\000\000\000\000\000\000\340\003\000\000\000\000\000\000\035\004\000\000\000\000\000\000R\003\000\000\000\000\000\000\r\003\000\000\000\000\000\000\376\002\000\000\000\000\000\000&\003\000\000\000\000\000\0006\003\000\000\000\000\000\000\032\003\000\000\000\000\000\000\376\002\000\000\000\000\000\000;\003\000\000\000\000\000\000\027\003\000\000\000\000\000\0000\003\000\000\000\000\000\000Z\003\000\000\000\000\000\000\001\003\000\000\000\000\000\000A\003\000\000\000\000\000\000\005\003\000\000\000\000\000\000#\003\000\000\000\000\000\000?\003\000\000\000\000\000\000?\003\000\000\000\000\000\000\004\003\000\000\000\000\000\000+\003\000\000\000\000\000\000>\003\000\000\000\000\000\000.\003\000\000\000\000\000\000\374\002\000\000\000\000\000\000M\003\000\000\000\000\000\000#\003\000\000\000\000\000\000\007\003\000\000\000\000\000\000\377\002\000\000\000\000\000\000c\003\000\000\000\000\000\000\025\003\000\000\000\000\000\000\007\003\000\000\000\000\000\000\023\003\000\000\000\000\000\000R\003\000\000\000\000\000\000\004\003\000\000\000\000\000\000\002\003\000\000\000\000\000\000\033\003\000\000\000\000\000\000I\003\000\000\000\000\000\000\r\003\000\000\000\000\000\000\371\002\000\000\000\000\000\0000\003\000\000\000\000\000\000D\003\000\000\000\000\000\000\377\002\000\000\000\000\000\000\004\003\000\000\000\000\000\000G\003\000\000\000\000\000\000(\003\000\000\000\000\000\000\377\002\000\000\000\000\000\000\035\003\000\000\000\000\000\000A\003\000\000\000\000\000\000#\003\000\000\000\000\000\000\264\002\000\000\000\000\000\000\311\002\000\000\000\000\000\000\330\002\000\000\000\000\000\000\364\002\000\000\000\000\000\000\277\002\000\000\000\000\000\000\271\002\000\000\000\000\000\000\364\002\000\000\000\000\000\000\354\002\000\000\000\000\000\000\343\002\000\000\000\000\000\000\276\002\000\000\000\000\000\000\367\002\000\000\000\000\000\000\322\002\000\000\000\000\000\000\322\002\000\000\000\000\000\000\371\002\000\000\000\000\000\000\335\002\000\000\000\000\000\000\267\002\000\000\000\000\000\000\322\002\000\000\000\000\000\000\340\002\000\000\000\000\000\000\322\002\000\000\000\000\000\000\274\002\000\000\000\000\000\000\307\002\000\000\000\000\000\000\340\002\000\000\000\000\000\000\261\002\000\000\000\000\000\000\256\002\000\000\000\000\000\000\353\002\000\000\000\000\000\000\315\002\000\000\000\000\000\000\317\002\000\000\000\000\000\000\271\002\000\000\000\000\000\000\336\002\000\000\000\000\000\000\356\002\000\000\000\000\000\000\307\002\000\000\000\000\000\000\314\002\000\000\000\000\000\000\336\002\000\000\000\000\000\000\356\002\000\000\000\000\000\000\325\002\000\000\000\000\000\000\277\002\000\000\000\000\000\000\345\002\000\000\000\000\000\000\330\002\000\000\000\000\000\000\277\002\000\000\000\000\000\000\302\002\000\000\000\000\000\000\340\002\000\000\000\000\000\000\336\002\000\000\000\000\000\000\261\002\000\000\000\000\000\000\356\002\000\000\000\000\000\000\312\002\000\000\000\000\000\000\304\002\000\000\000\000\000\000\276\002\000\000\000\000\000\000\343\002\000\000\000\000\000\000\353\002\000\000\000\000\000\000\250\002\000\000\000\000\000\000\322\002\000\000\000\000\000\000\335\002\000\000\000\000\000\000\335\002\000\000\000\000\000\000\260\002\000\000\000\000\000\000\341\002\000\000\000\000\000\000\353\002\000\000\000\000\000\000\271\002\000\000\000\000\000\000\307\002\000\000\000\000\000\000\325\002\000\000\000\000\000\000\350\002\000\000\000\000\000\000\314\002\000\000\000\000\000\000\263\002\000\000\000\000\000\000\332\002\000\000\000\000\000\000\345\002\000\000\000\000\000\000\277\002\000\000\000\000\000\000\272\002\000\000\000\000\000\000\330\002\000\000\000\000\000\000\343\002\000\000\000\000\000\000\243\002\000\000\000\000\000\000\307\002\000\000\000\000\000\000\310\002\000\000\000\000\000\000\332\002\000\000\000\000\000\000\301\002\000\000\000\000\000\000\256\002\000\000\000\000\000\000\353\002\000\000\000\000\000\000\335\002\000\000\000\000\000\000\253\002\000\000\000\000\000\000\274\002\000\000\000\000\000\000\264\002\000\000\000\000\000\000\336\002\000\000\000\000\000\000\251\002\000\000\000\000\000\000\266\002\000\000\000\000\000\000\335\002\000\000\000\000\000\000\277\002\000\000\000\000\000\000\277\002\000\000\000\000\000\000\254\002\000\000\000\000\000\000\343\002\000\000\000\000\000\000\341\002\000\000\000\000\000\000\266\002\000\000\000\000\000\000\312\002\000\000\000\000\000\000\340\002\000\000\000\000\000\000\340\002\000\000\000\000\000\000\305\002\000\000\000\000\000\000\271\002\000\000\000\000\000\000\343\002\000\000\000\000\000\000\333\002\000\000\000\000\000\000\304\002\000\000\000\000\000\000\302\002\000\000\000\000\000\000\315\002\000\000\000\000\000\000\345\002\000\000\000\000\000\000\301\002\000\000\000\000\000\000\256\002\000\000\000\000\000\000\353\002\000\000\000\000\000\000\312\002\000\000\000\000\000\000\302\002\000\000\000\000\000\000\264\002\000\000\000\000\000\000\346\002\000\000\000\000\000\000\340\002\000\000\000\000\000\000\263\002\000\000\000\000\000\000\322\002\000\000\000\000\000\000\351\002\000\000\000\000\000\000\346\002\000\000\000\000\000\000\277\002\000\000\000\000\000\000\271\002\000\000\000\000\000\000\340\002\000\000\000\000\000\000\333\002\000\000\000\000\000\000\266\002\000\000\000\000\000\000\256\002\000\000\000\000\000\000\305\002\000\000\000\000\000\000\320\002\000\000\000\000\000\000\240\002\000\000\000\000\000\000\266\002\000\000\000\000\000\000\354\002\000\000\000\000\000\000\277\002\000\000\000\000\000\000\304\002\000\000\000\000\000\000\266\002\000\000\000\000\000\000\343\002\000\000\000\000\000\000\351\002\000\000\000\000\000\000\260\002\000\000\000\000\000\000\361\002\000\000\000\000\000\000\340\002\000\000\000\000\000\000\307\002\000\000\000\000\000\000\343\002\000\000\000\000\000\000\351\002\000\000\000\000\000\000\264\002\000\000\000\000\000\000\274\002\000\000\000\000\000\000\325\002\000\000\000\000\000\000\325\002\000\000\000\000\000\000\312\002\000\000\000\000\000\000\253\002\000\000\000\000\000\000\301\002\000\000\000\000\000\000\363\002\000\000\000\000\000\000\263\002\000\000\000\000\000\000\314\002\000\000\000\000\000\000\264\002\000\000\000\000\000\000\340\002\000\000\000\000\000\000\343\002\000\000\000\000\000\000\246\002\000\000\000\000\000\000\330\002\000\000\000\000\000\000\346\002\000\000\000\000\000\000\330\002\000\000\000\000\000\000\311\002\000\000\000\000\000\000\264\002\000\000\000\000\000\000\361\002\000\000\000\000\000\000\340\002\000\000\000\000\000\000\272\002\000\000\000\000\000\000\302\002\000\000\000\000\000\000\330\002\000\000\000\000\000\000\343\002\000\000\000\000\000\000\272\002\000\000\000\000\000\000\310\002\000\000\000\000\000\000\363\002\000\000\000\000\000\000\343\002\000\000\000\000\000\000\277\002\000\000\000\000\000\000\302\002\000\000\000\000\000\000\351\002\000\000\000\000\000\000\353\002\000\000\000\000\000\000\277\002\000\000\000\000\000\000\304\002\000\000\000\000\000\000\341\002\000\000\000\000\000\000\361\002\000\000\000\000\000\000\304\002\000\000\000\000\000\000\307\002\000\000\000\000\000\000\004\003\000\000\000\000\000\000\342\002\000\000\000\000\000\000\277\002\000\000\000\000\000\000\333\002\000\000\000\000\000\000\343\002\000\000\000\000\000\000\335\002\000\000\000\000\000\000\261\002\000\000\000\000\000\000\317\002\000\000\000\000\000\000\374\002\000\000\000\000\000\000\315\002\000\000\000\000\000\000\325\002\000\000\000\000\000\000\330\002\000\000\000\000\000\000\277\002\000\000\000\000\000\000\243\002\000\000\000\000\000\000\343\002\000\000\000\000\000\000\315\002\000\000\000\000\000\000\312\002\000\000\000\000\000\000\302\002\000\000\000\000\000\000\367\002\000\000\000\000\000\000\267\002\000\000\000\000\000\000\307\002\000\000\000\000\000\000\340\002\000\000\000\000\000\000\343\002\000\000\000\000\000\000\261\002\000\000\000\000\000\000\304\002\000\000\000\000\000\000\361\002\000\000\000\000\000\000\274\002\000\000\000\000\000\000\261\002\000\000\000\000\000\000\325\002\000\000\000\000\000\000\333\002\000\000\000\000\000\000\304\002\000\000\000\000\000\000\250\002\000\000\000\000\000\000\343\002\000\000\000\000\000\000\332\002\000\000\000\000\000\000\312\002\000\000\000\000\000\000\305\002\000\000\000\000\000\000\307\002\000\000\000\000\000\000\307\002\000\000\000\000\000\000\271\002\000\000\000\000\000\000\340\002\000\000\000\000\000\000\315\002\000\000\000\000\000\000\320\002\000\000\000\000\000\000\245\002\000\000\000\000\000\000\312\002\000\000\000\000\000\000\374\002\000\000\000\000\000\000\271\002\000\000\000\000\000\000\274\002\000\000\000\000\000\000\361\002\000\000\000\000\000\000\343\002\000\000\000\000\000\000\346\002\000\000\000\000\000\000\356\002\000\000\000\000\000\000\327\002\000\000\000\000\000\000\312\002\000\000\000\000\000\000\304\002\000\000\000\000\000\000\360\002\000\000\000\000\000\000\340\002\000\000\000\000\000\000\264\002\000\000\000\000\000\000\304\002\000\000\000\000\000\000\335\002\000\000\000\000\000\000\333\002\000\000\000\000\000\000\266\002\000\000\000\000\000\000\253\002\000\000\000\000\000\000\330\002\000\000\000\000\000\000\350\002\000\000\000\000\000\000\256\002\000\000\000\000\000\000\315\002\000\000\000\000\000\000\305\002\000\000\000\000\000\000\346\002\000\000\000\000\000\000\325\002\000\000\000\000\000\000\261\002\000\000\000\000\000\000\361\002\000\000\000\000\000\000\345\002\000\000\000\000\000\000\340\002\000\000\000\000\000\000\311\002\000\000\000\000\000\000\307\002\000\000\000\000\000\000\007\003\000\000\000\000\000\000\332\002\000\000\000\000\000\000\261\002\000\000\000\000\000\000\336\002\000\000\000\000\000\000\345\002\000\000\000\000\000\000\356\002\000\000\000\000\000\000\276\002\000\000\000\000\000\000\305\002\000\000\000\000\000\000\366\002\000\000\000\000\000\000\335\002\000\000\000\000\000\000\272\002\000\000\000\000\000\000\305\002\000\000\000\000\000\000\336\002\000\000\000\000\000\000\307\002\000\000\000\000\000\000\261\002\000\000\000\000\000\000\361\002\000\000\000\000\000\000\315\002\000\000\000\000\000\000\274\002\000\000\000\000\000\000\307\002\000\000\000\000\000\000\314\002\000\000\000\000\000\000\377\002\000\000\000\000\000\000\272\002\000\000\000\000\000\000\274\002\000\000\000\000\000\000\322\002\000\000\000\000\000\000\345\002\000\000\000\000\000\000\343\002\000\000\000\000\000\000\274\002\000\000\000\000\000\000\322\002\000\000\000\000\000\000\374\002\000\000\000\000\000\000\315\002\000\000\000\000\000\000\277\002\000\000\000\000\000\000\343\002\000\000\000\000\000\000\343\002\000\000\000\000\000\000\256\002\000\000\000\000\000\000\332\002\000\000\000\000\000\000\351\002\000\000\000\000\000\000\305\002\000\000\000\000\000\000\272\002\000\000\000\000\000\000\277\002\000\000\000\000\000\000\350\002\000\000\000\000\000\000\322\002\000\000\000\000\000\000\256\002\000\000\000\000\000\000\277\002\000\000\000\000\000\000\335\002\000\000\000\000\000\000\301\002\000\000\000\000\000\000\264\002\000\000\000\000\000\000\002\003\000\000\000\000\000\000\256\002\000\000\000\000\000\000\315\002\000\000\000\000\000\000\317\002\000\000\000\000\000\000\340\002\000\000\000\000\000\000\325\002\000\000\000\000\000\000\271\002\000\000\000\000\000\000\364\002\000\000\000\000\000\000\351\002\000\000\000\000\000\000\322\002\000\000\000\000\000\000\304\002\000\000\000\000\000\000\325\002\000\000\000\000\000\000\361\002\000\000\000\000\000\000\327\002\000\000\000\000\000\000\261\002\000\000\000\000\000\000\332\002\000\000\000\000\000\000\312\002\000\000\000\000\000\000\261\002\000\000\000\000\000\000\264\002\000\000\000\000\000\000\356\002\000\000\000\000\000\000\335\002\000\000\000\000\000\000\243\002\000\000\000\000\000\000\312\002\000\000\000\000\000\000\304\002\000\000\000\000\000\000\325\002\000\000\000\000\000\000\317\002\000\000\000\000\000\000\253\002\000\000\000\000\000\000\371\002\000\000\000\000\000\000\333\002\000\000\000\000\000\000\304\002\000\000\000\000\000\000\305\002\000\000\000\000\000\000\325\002\000\000\000\000\000\000\373\002\000\000\000\000\000\000\315\002\000\000\000\000\000\000\261\002\000\000\000\000\000\000\343\002\000\000\000\000\000\000\345\002\000\000\000\000\000\000\332\002\000\000\000\000\000\000\277\002\000\000\000\000\000\000\307\002\000\000\000\000\000\000\363\002\000\000\000\000\000\000\315\002\000\000\000\000\000\000\256\002\000\000\000\000\000\000\276\002\000\000\000\000\000\000\325\002\000\000\000\000\000\000\336\002\000\000\000\000\000\000\301\002\000\000\000\000\000\000\260\002\000\000\000\000\000\000\371\002\000\000\000\000\000\000\322\002\000\000\000\000\000\000\271\002\000\000\000\000\000\000\311\002\000\000\000\000\000\000\340\002\000\000\000\000\000\000\376\002\000\000\000\000\000\000\276\002\000\000\000\000\000\000\304\002\000\000\000\000\000\000\361\002\000\000\000\000\000\000\351\002\000\000\000\000\000\000\343\002\000\000\000\000\000\000\302\002\000\000\000\000\000\000\333\002\000\000\000\000\000\000\261\002\000\000\000\000\000\000\307\002\000\000\000\000\000\000\322\002\000\000\000\000\000\000\335\002\000\000\000\000\000\000\251\002\000\000\000\000\000\000\305\002\000\000\000\000\000\000\351\002\000\000\000\000\000\000\314\002\000\000\000\000\000\000\263\002\000\000\000\000\000\000\312\002\000\000\000\000\000\000\322\002\000\000\000\000\000\000\367\002\000\000\000\000\000\000\246\002\000\000\000\000\000\000\276\002\000\000\000\000\000\000\356\002\000\000\000\000\000\000\336\002\000\000\000\000\000\000\340\002\000\000\000\000\000\000\264\002\000\000\000\000\000\000\356\002\000\000\000\000\000\000\371\002\000\000\000\000\000\000\312\002\000\000\000\000\000\000\315\002\000\000\000\000\000\000\346\002\000\000\000\000\000\000\325\002\000\000\000\000\000\000\256\002\000\000\000\000\000\000\340\002\000\000\000\000\000\000\360\002\000\000\000\000\000\000\325\002\000\000\000\000\000\000\312\002\000\000\000\000\000\000\312\002\000\000\000\000\000\000\361\002\000\000\000\000\000\000\332\002\000\000\000\000\000\000\266\002\000\000\000\000\000\000\312\002\000\000\000\000\000\000\371\002\000\000\000\000\000\000\322\002\000\000\000\000\000\000\312\002\000\000\000\000\000\000\274\002\000\000\000\000\000\000\354\002\000\000\000\000\000\000\366\002\000\000\000\000\000\000\261\002\000\000\000\000\000\000\333\002\000\000\000\000\000\000\335\002\000\000\000\000\000\000\353\002\000\000\000\000\000\000\332\002\000\000\000\000\000\000\301\002\000\000\000\000\000\000\005\003\000\000\000\000\000\000\353\002\000\000\000\000\000\000\322\002\000\000\000\000\000\000\343\002\000\000\000\000\000\000\377\002\000\000\000\000\000\000\274\002\000\000\000\000\000\000\277\002\000\000\000\000\000\000\354\002\000\000\000\000\000\000\333\002\000\000\000\000\000\000\304\002\000\000\000\000\000\000\322\002\000\000\000\000\000\000\371\002\000\000\000\000\000\000\266\002\000\000\000\000\000\000\343\002\000\000\000\000\000\000\353\002\000\000\000\000\000\000\332\002\000\000\000\000\000\000\276\002\000\000\000\000\000\000\307\002\000\000\000\000\000\000\371\002\000\000\000\000\000\000\332\002\000\000\000\000\000\000\274\002\000\000\000\000\000\000\333\002\000\000\000\000\000\000\346\002\000\000\000\000\000\000\277\002\000\000\000\000\000\000\332\002\000\000\000\000\000\000\346\002\000\000\000\000\000\000\325\002\000\000\000\000\000\000\256\002\000\000\000\000\000\000\350\002\000\000\000\000\000\000\312\002\000\000\000\000\000\000\274\002\000\000\000\000\000\000\340\002\000\000\000\000\000\000\333\002\000\000\000\000\000\000\307\002\000\000\000\000\000\000\256\002\000\000\000\000\000\000\330\002\000\000\000\000\000\000\320\002\000\000\000\000\000\000\304\002\000\000\000\000\000\000\276\002\000\000\000\000\000\000\335\002\000\000\000\000\000\000\371\002\000\000\000\000\000\000\250\002\000\000\000\000\000\000\274\002\000\000\000\000\000\000\376\002\000\000\000\000\000\000\314\002\000\000\000\000\000\000\320\002\000\000\000\000\000\000\256\002\000\000\000\000\000\000\343\002\000\000\000\000\000\000\364\002\000\000\000\000\000\000\266\002\000\000\000\000\000\000\332\002\000\000\000\000\000\000\361\002\000\000\000\000\000\000\330\002\000\000\000\000\000\000\301\002\000\000\000\000\000\000\377\002\000\000\000\000\000\000\371\002\000\000\000\000\000\000\307\002\000\000\000\000\000\000\327\002\000\000\000\000\000\000\356\002\000\000\000\000\000\000\001\003\000\000\000\000\000\000\320\002\000\000\000\000\000\000\304\002\000\000\000\000\000\000\371\002\000\000\000\000\000\000\373\002\000\000\000\000\000\000\335\002\000\000\000\000\000\000\322\002\000\000\000\000\000\000\350\002\000\000\000\000\000\000\377\002\000\000\000\000\000\000\325\002\000\000\000\000\000\000\312\002\000\000\000\000\000\000\333\002\000\000\000\000\000\000\367\002\000\000\000\000\000\000\336\002\000\000\000\000\000\000\302\002\000\000\000\000\000\000\340\002\000\000\000\000\000\000\356\002\000\000\000\000\000\000\330\002\000\000\000\000\000\000\301\002\000\000\000\000\000\000\333\002\000\000\000\000\000\000\332\002\000\000\000\000\000\000\264\002\000\000\000\000\000\000\311\002\000\000\000\000\000\000\366\002\000\000\000\000\000\000\325\002\000\000\000\000\000\000\320\002\000\000\000\000\000\000\301\002\000\000\000\000\000\000\361\002\000\000\000\000\000\000\353\002\000\000\000\000\000\000\274\002\000\000\000\000\000\000\325\002\000\000\000\000\000\000\346\002\000\000\000\000\000\000\320\002\000\000\000\000\000\000\277\002\000\000\000\000\000\000\374\002\000\000\000\000\000\000\356\002\000\000\000\000\000\000\304\002\000\000\000\000\000\000\307\002\000\000\000\000\000\000\335\002\000\000\000\000\000\000\361\002\000\000\000\000\000\000\276\002\000\000\000\000\000\000\272\002\000\000\000\000\000\000\336\002\000\000\000\000\000\000\335\002\000\000\000\000\000\000\312\002\000\000\000\000\000\000\256\002\000\000\000\000\000\000\312\002\000\000\000\000\000\000\335\002\000\000\000\000\000\000\317\002\000\000\000\000\000\000\254\002\000\000\000\000\000\000\305\002\000\000\000\000\000\000\330\002\000\000\000\000\000\000\322\002\000\000\000\000\000\000\277\002\000\000\000\000\000\000\271\002\000\000\000\000\000\000\363\002\000\000\000\000\000\000\332\002\000\000\000\000\000\000\274\002\000\000\000\000\000\000\302\002\000\000\000\000\000\000\340\002\000\000\000\000\000\000\361\002\000\000\000\000\000\000\302\002\000\000\000\000\000\000\266\002\000\000\000\000\000\000\332\002\000\000\000\000\000\000\340\002\000\000\000\000\000\000\305\002\000\000\000\000\000\000\256\002\000\000\000\000\000\000\315\002\000\000\000\000\000\000\330\002\000\000\000\000\000\000\317\002\000\000\000\000\000\000\314\002\000\000\000\000\000\000\325\002\000\000\000\000\000\000\312\002\000\000\000\000\000\000\276\002\000\000\000\000\000\000\261\002\000\000\000\000\000\000\366\002\000\000\000\000\000\000\327\002\000\000\000\000\000\000\271\002\000\000\000\000\000\000\310\002\000\000\000\000\000\000\340\002\000\000\000\000\000\000\340\002\000\000\000\000\000\000\274\002\000\000\000\000\000\000\256\002\000\000\000\000\000\000\336\002\000\000\000\000\000\000\330\002\000\000\000\000\000\000\266\002\000\000\000\000\000\000\250\002\000\000\000\000\000\000\332\002\000\000\000\000\000\000\325\002\000\000\000\000\000\000\256\002\000\000\000\000\000\000\312\002\000\000\000\000\000\000\307\002\000\000\000\000\000\000\323\002\000\000\000\000\000\000\264\002\000\000\000\000\000\000\241\002\000\000\000\000\000\000\346\002\000\000\000\000\000\000\322\002\000\000\000\000\000\000\266\002\000\000\000\000\000\000\267\002\000\000\000\000\000\000\317\002\000\000\000\000\000\000\245\002\000\000\000\000\000\000t\002\000\000\000\000\000\000\274\002\000\000\000\000\000\000\240\002\000\000\000\000\000\000\230\002\000\000\000\000\000\000\243\002\000\000\000\000\000\000\304\002\000\000\000\000\000\000\312\002\000\000\000\000\000\000\235\002\000\000\000\000\000\000\277\002\000\000\000\000\000\000\305\002\000\000\000\000\000\000\325\002\000\000\000\000\000\000\251\002\000\000\000\000\000\000\256\002\000\000\000\000\000\000\317\002\000\000\000\000\000\000\325\002\000\000\000\000\000\000\264\002\000\000\000\000\000\000\254\002\000\000\000\000\000\000\274\002\000\000\000\000\000\000\325\002\000\000\000\000\000\000\317\002\000\000\000\000\000\000\271\002\000\000\000\000\000\000\335\002\000\000\000\000\000\000\322\002\000\000\000\000\000\000\305\002\000\000\000\000\000\000\261\002\000\000\000\000\000\000\312\002\000\000\000\000\000\000\351\002\000\000\000\000\000\000\315\002\000\000\000\000\000\000\272\002\000\000\000\000\000\000\333\002\000\000\000\000\000\000\346\002\000\000\000\000\000\000\322\002\000\000\000\000\000\000\277\002\000\000\000\000\000\000\304\002\000\000\000\000\000\000\377\002\000\000\000\000\000\000\314\002\000\000\000\000\000\000\274\002\000\000\000\000\000\000\307\002\000\000\000\000\000\000\350\002\000\000\000\000\000\000\364\002\000\000\000\000\000\000\267\002\000\000\000\000\000\000\307\002\000\000\000\000\000\000\360\002\000\000\000\000\000\000\346\002\000\000\000\000\000\000\315\002\000\000\000\000\000\000\277\002\000\000\000\000\000\000\343\002\000\000\000\000\000\000\360\002\000\000\000\000\000\000\277\002\000\000\000\000\000\000\312\002\000\000\000\000\000\000\332\002\000\000\000\000\000\000\364\002\000\000\000\000\000\000\325\002\000\000\000\000\000\000\263\002\000\000\000\000\000\000\330\002\000\000\000\000\000\000\336\002\000\000\000\000\000\000\317\002\000\000\000\000\000\000\277\002\000\000\000\000\000\000\335\002\000\000\000\000\000\000\356\002\000\000\000\000\000\000\346\002\000\000\000\000\000\000\264\002\000\000\000\000\000\000\325\002\000\000\000\000\000\000\374\002\000\000\000\000\000\000\330\002\000\000\000\000\000\000\325\002\000\000\000\000\000\000\305\002\000\000\000\000\000\000\364\002\000\000\000\000\000\000\346\002\000\000\000\000\000\000\266\002\000\000\000\000\000\000\346\002\000\000\000\000\000\000\336\002\000\000\000\000\000\000\330\002\000\000\000\000\000\000\305\002\000\000\000\000\000\000\340\002\000\000\000\000\000\000\346\002\000\000\000\000\000\000\330\002\000\000\000\000\000\000\315\002\000\000\000\000\000\000\354\002\000\000\000\000\000\000\374\002\000\000\000\000\000\000\335\002\000\000\000\000\000\000\307\002\000\000\000\000\000\000\345\002\000\000\000\000\000\000\351\002\000\000\000\000\000\000\322\002\000\000\000\000\000\000\325\002\000\000\000\000\000\000\361\002\000\000\000\000\000\000\340\002\000\000\000\000\000\000\256\002\000\000\000\000\000\000\327\002\000\000\000\000\000\000\340\002\000\000\000\000\000\000\320\002\000\000\000\000\000\000\267\002\000\000\000\000\000\000\t\003\000\000\000\000\000\000\327\002\000\000\000\000\000\000\267\002\000\000\000\000\000\000\332\002\000\000\000\000\000\000\356\002\000\000\000\000\000\000\266\002\000\000\000\000\000\000\266\002\000\000\000\000\000\000\335\002\000\000\000\000\000\000\322\002\000\000\000\000\000\000\277\002\000\000\000\000\000\000\246\002\000\000\000\000\000\000\304\002\000\000\000\000\000\000\253\002\000\000\000\000\000\000\276\002\000\000\000\000\000\000\277\002\000\000\000\000\000\000\256\002\000\000\000\000\000\000\264\002\000\000\000\000\000\000\332\002\000\000\000\000\000\000\243\002\000\000\000\000\000\000\256\002\000\000\000\000\000\000\264\002\000\000\000\000\000\000\307\002\000\000\000\000\000\000\263\002\000\000\000\000\000\000\223\002\000\000\000\000\000\000\250\002\000\000\000\000\000\000\336\002\000\000\000\000\000\000\263\002\000\000\000\000\000\000\264\002\000\000\000\000\000\000\225\002\000\000\000\000\000\000\315\002\000\000\000\000\000\000\314\002\000\000\000\000\000\000\243\002\000\000\000\000\000\000\266\002\000\000\000\000\000\000\274\002\000\000\000\000\000\000\230\002\000\000\000\000\000\000\302\002\000\000\000\000\000\000\251\002\000\000\000\000\000\000\240\002\000\000\000\000\000\000\274\002\000\000\000\000\000\000\312\002\000\000\000\000\000\000\250\002\000\000\000\000\000\000\230\002\000\000\000\000\000\000\267\002\000\000\000\000\000\000\310\002\000\000\000\000\000\000\256\002\000\000\000\000\000\000\256\002\000\000\000\000\000\000\230\002\000\000\000\000\000\000\322\002\000\000\000\000\000\000\312\002\000\000\000\000\000\000\250\002\000\000\000\000\000\000\256\002\000\000\000\000\000\000\312\002\000\000\000\000\000\000\307\002\000\000\000\000\000\000\264\002\000\000\000\000\000\000\233\002\000\000\000\000\000\000\266\002\000\000\000\000\000\000\320\002\000\000\000\000\000\000\254\002\000\000\000\000\000\000\302\002\000\000\000\000\000\000\264\002\000\000\000\000\000\000\250\002\000\000\000\000\000\000\274\002\000\000\000\000\000\000\336\002\000\000\000\000\000\000\271\002\000\000\000\000\000\000\264\002\000\000\000\000\000\000\254\002\000\000\000\000\000\000\335\002\000\000\000\000\000\000\351\002\000\000\000\000\000\000\245\002\000\000\000\000\000\000\274\002\000\000\000\000\000\000\330\002\000\000\000\000\000\000\266\002\000\000\000\000\000\000\256\002\000\000\000\000\000\000\361\002\000\000\000\000\000\000\261\002\000\000\000\000\000\000\241\002\000\000\000\000\000\000\253\002\000\000\000\000\000\000\304\002\000\000\000\000\000\000\333\002\000\000\000\000\000\000\222\002\000\000\000\000\000\000\251\002\000\000\000\000\000\000\343\002\000\000\000\000\000\000\277\002\000\000\000\000\000\000\243\002\000\000\000\000\000\000\317\002\000\000\000\000\000\000\330\002\000\000\000\000\000\000\235\002\000\000\000\000\000\000\312\002\000\000\000\000\000\000\317\002\000\000\000\000\000\000\322\002\000\000\000\000\000\000\271\002\000\000\000\000\000\000\276\002\000\000\000\000\000\000\333\002\000\000\000\000\000\000\277\002\000\000\000\000\000\000\233\002\000\000\000\000\000\000\266\002\000\000\000\000\000\000\330\002\000\000\000\000\000\000\274\002\000\000\000\000\000\000\243\002\000\000\000\000\000\000\271\002\000\000\000\000\000\000\330\002\000\000\000\000\000\000\277\002\000\000\000\000\000\000\267\002\000\000\000\000\000\000\225\002\000\000\000\000\000\000\315\002\000\000\000\000\000\000\317\002\000\000\000\000\000\000\246\002\000\000\000\000\000\000\261\002\000\000\000\000\000\000\264\002\000\000\000\000\000\000\251\002\000\000\000\000\000\000\222\002\000\000\000\000\000\000\317\002\000\000\000\000\000\000\261\002\000\000\000\000\000\000\205\002\000\000\000\000\000\000\246\002\000\000\000\000\000\000\253\002\000\000\000\000\000\000\304\002\000\000\000\000\000\000\220\002\000\000\000\000\000\000y\002\000\000\000\000\000\000\245\002\000\000\000\000\000\000\256\002\000\000\000\000\000\000y\002\000\000\000\000\000\000\312\002\000\000\000\000\000\000\251\002\000\000\000\000\000\000\246\002\000\000\000\000\000\000|\002\000\000\000\000\000\000`\002\000\000\000\000\000\000\246\002\000\000\000\000\000\000\261\002\000\000\000\000\000\000\301\002\000\000\000\000\000\000t\002\000\000\000\000\000\000t\002\000\000\000\000\000\000\245\002\000\000\000\000\000\000\202\002\000\000\000\000\000\000f\002\000\000\000\000\000\000z\002\000\000\000\000\000\000\212\002\000\000\000\000\000\000\254\002\000\000\000\000\000\000\222\002\000\000\000\000\000\000\177\002\000\000\000\000\000\000\271\002\000\000\000\000\000\000\233\002\000\000\000\000\000\000~\002\000\000\000\000\000\000\233\002\000\000\000\000\000\000\264\002\000\000\000\000\000\000\214\002\000\000\000\000\000\000\222\002\000\000\000\000\000\000\226\002\000\000\000\000\000\000\232\002\000\000\000\000\000\000\214\002\000\000\000\000\000\000q\002\000\000\000\000\000\000\222\002\000\000\000\000\000\000\240\002\000\000\000\000\000\000\201\002\000\000\000\000\000\000\177\002\000\000\000\000\000\000\204\002\000\000\000\000\000\000\241\002\000\000\000\000\000\000\222\002\000\000\000\000\000\000v\002\000\000\000\000\000\000\245\002\000\000\000\000\000\000\253\002\000\000\000\000\000\000\222\002\000\000\000\000\000\000\236\002\000\000\000\000\000\000\253\002\000\000\000\000\000\000n\002\000\000\000\000\000\000\217\002\000\000\000\000\000\000\215\002\000\000\000\000\000\000\232\002\000\000\000\000\000\000\220\002\000\000\000\000\000\000l\002\000\000\000\000\000\000h\002\000\000\000\000\000\000\254\002\000\000\000\000\000\000\207\002\000\000\000\000\000\000|\002\000\000\000\000\000\000\204\002\000\000\000\000\000\000\253\002\000\000\000\000\000\000h\002\000\000\000\000\000\000k\002\000\000\000\000\000\000\230\002\000\000\000\000\000\000\220\002\000\000\000\000\000\000t\002\000\000\000\000\000\000t\002\000\000\000\000\000\000\230\002\000\000\000\000\000\000\246\002\000\000\000\000\000\000t\002\000\000\000\000\000\000y\002\000\000\000\000\000\000\214\002\000\000\000\000\000\000\232\002\000\000\000\000\000\000\235\002\000\000\000\000\000\000z\002\000\000\000\000\000\000\233\002\000\000\000\000\000\000q\002\000\000\000\000\000\000\222\002\000\000\000\000\000\000\223\002\000\000\000\000\000\000\264\002\000\000\000\000\000\000\220\002\000\000\000\000\000\000U\002\000\000\000\000\000\000\205\002\000\000\000\000\000\000\235\002\000\000\000\000\000\000\212\002\000\000\000\000\000\000X\002\000\000\000\000\000\000q\002\000\000\000\000\000\000\236\002\000\000\000\000\000\000\264\002\000\000\000\000\000\000|\002\000\000\000\000\000\000\225\002\000\000\000\000\000\000\243\002\000\000\000\000\000\000\246\002\000\000\000\000\000\000\246\002\000\000\000\000\000\000y\002\000\000\000\000\000\000\201\002\000\000\000\000\000\000\264\002\000\000\000\000\000\000\240\002\000\000\000\000\000\000\215\002\000\000\000\000\000\000\205\002\000\000\00